6
conv.0.weight 800 3b49e63f bd8d4405 be46e9c6 3e5918b5 3e1871e4 bc681962 be1f6752 bdc4e5e8 3e846d21 bcc47ab5 bd55d503 bda308e9 3e62646c 3db4d65a 3d819db1 bd293d1b bd08bbac 3e1ba907 3ce030d8 be7163d9 3e2647b5 3dd29fd9 be21501c 3e18d1e2 be0cf795 3c16f674 3e6e696f bdb3bc1e bdda0d9b be850dfa 3d6ee54f 3e7fee90 be28accc be7b6706 be8cce69 3dae5700 3e315c3e 3da747fd 3c12eefb 3e0443c9 3e77d384 3db122ae bd91f287 bce21b7a bdde05e4 bbf59350 3d7d1a03 3e0e79c7 3e0a2c6a bd9b4bb2 be5e6653 bcfb5317 3ca64b67 3e2c2b22 3e8260e6 be3beea3 3dabd0b4 3d0ea3d0 3e027b14 bdb940e0 be82a147 3e2169e0 3e3d44c8 3d0ec417 be19655f be5ce3a8 bd2cf10d bd3a66ab 3cdaee41 be9090a0 be12482a 3dadd931 3d560d63 bd8aa63d bea0c0fc 3e7d2644 3caef2cd bdc2bdcb 3de39463 be7eef7c 3e8ac778 bd088607 bd8fd5e0 bdfba0bc be275e18 3dd13dd0 bc91f450 3e1e1b2b be734418 be45f298 3e15ec5e 3e726690 bda4f3f0 be4b951a bdac4234 3d983dc2 3da4b4ea bda40294 3e0ae4f5 ba84da91 bdeba3dc 3cf5b8ef 3c8797d4 3e412117 3ddd69e3 bc98de38 be1ffb3d 3e84082b 3de12bfa bdaf4db4 3d8c3a9b 3ddddd9a 3e03a58e bd9ade7d be9b4f58 3d939a32 3e5e13cd 3d383c08 be1c9c0c bb15de79 3d3931ab 3c9a769c 3c3e1162 3d375d5e 3d09d803 3e3034e9 3d30c683 3e6f3859 3e33ff3b 3e3d4aba bd85885d bdc64be4 3e186329 bcdc0f0d bcaa258d 3cfc82db be33b313 bd809cf1 3e7524ad 3baca5c9 bd7d7191 3d308ae4 3e2f9a23 be2d7cc8 3c984242 3b3ab083 bdbd8dca bd8537e1 3e3f6949 bd5fda1b bd569ead be4a97ed be0697d7 be47961f be3cee96 3e4af33a 3e070457 3d60294d 3e198f8d 3e143974 3dafce25 3e73b0a3 bbd5bf6d 3e6e3854 3e23f154 3df2d480 3df12613 3dd23cca 3d97efac 3cfb2d69 be3db3d3 be51a0ba be2a54fb be4a7d7c be00a0bb 3d122a47 3cd295b7 be3ccf1b 3df38ed3 3e2973c0 3ddc08f2 ba21715b 3e4fcbe7 be4b0bf1 be59008d 3c98501c 3e4e1aef 3e41a066 bce8bbe9 3dcc9f66 bc74ffe7 bda56fd6 bb570c11 3e073115 3e4f7ef4 3dabcb53 be22d044 bd9ea2a5 be077377 be43240b 3e09306b 3dd5f84d 3dc251a6 be4d0b51 be4d06b2 3d990c31 3e554df0 3ba6f397 3e522ba1 3e22628f 3e3ad1d6 3e47953b 3e30e4d6 be3fa1a6 3dc23284 3d38a666 bd6f2c02 bd39b46f bd99f131 3dd378af 3e438767 bdc24535 3d161bbc 3c2ef44c bd97ee11 be082205 3e0a6fc2 3e419b3e 3e113252 bde7e796 3e381386 3e694ba4 bd2f81b4 3cd88ff2 be8710ab 3e2eac74 3e3fd4d0 3d85cb31 be81aed9 be8c7f16 bd7549d4 3e31d8a3 bdc7a0ee bd329406 3da5ce7b 3e62da2f 3d7e6772 3d762836 be748b82 be4e4daa bd8acfd3 3dc71ac1 3e37518d 3df8a455 bd8bfb23 be4d7ae6 3e413b31 3cf8b981 3dc33a96 be305f1d be574ff0 bda1da28 3e3ad921 3d9b2274 be80b985 3dd169d9 bd99493c 3e5c2730 3debeebc be73568b bdb3383e bc89915a 3e25ca06 bdbf9ac0 3d0ec146 3e42d4c1 3d0631fa 3de4a4bd 3cf9ddf4 3d68f822 b9f10d5c be21df30 be4b8354 3adf02bd 3e1fd898 be670a00 be6bbf63 bcec62ee 3d6c3daa bd585d5b be841cf4 be9233c4 3d5cb0b4 bc947cfc 3e81e484 be76911d be240b99 3e164e55 3e7bef6e 3e14cbd1 be2ed89a 3e0d6883 3c491fdd 3dbdfc6b bdbf50a0 bdf428f9 bdcc845c 3ddde8e3 3d157845 be09730f bdf75cae bd263c54 3d48208c 3b070c7b be725d4c be82e112 3c8dffa4 be835250 be4dd3d9 be40c3e4 be35f3b8 be54d426 bd7a1737 bd2aa3a8 be397a97 3deedb0d bc5719bd 3e7cf77f 3e950a16 bdd6964f 3e10d86f bd578640 bdf1f4bd 3e2b70e8 3e7ddcf4 be42deb1 be059516 bba3ee25 3e256926 3e42dd92 be594a6c be71b1dd be0e097d 3dd00d16 3da13eb5 be5af49f bde71cf1 bcd6cdb4 bcc69e9f 3c6cec5a 3e2069c7 3d328c64 baf5a399 be2e699d 3d221c4f 3e60cee1 3e2eff67 3e64740f 3d55f292 bdecb5d5 bcda5745 bd27e090 3ccb2360 3e0729e1 3e4dc21b bdc21f47 be7d0c2c be52ba57 bc979247 3dbe73f7 bd014227 bd772b43 3d185472 be5a3226 be6b4246 3dcdfab9 be1d17ec 3dce8aeb 3d258cf4 bcd6ca1a bb8b07c4 bdcdb200 bd88de09 3e138b34 be1a8e92 3e497b61 3e0f55f4 bd51d0d7 bda9685f be9f1766 3c62526e 3df221f4 3e564d36 be2dc499 be4e5390 bcfd45e8 3e61b804 3df68ff8 bdb7e7ae 3ddc3cf4 bc221645 3de0a951 bd6c110d be88ddd7 be6b93f0 3de47977 bd615276 3e045fc9 be0a7ec4 be539e3b bc8290ee 3d0a89b0 3e2235c4 bdc804be 3c673c46 3e4f5dc8 3c9ce529 bbb84130 3d67b5d1 3deee364 3e368a54 3e67109f 3d91dac3 3e156bb1 3e757699 3c3015c0 3e8c406b 3e0ec4f3 3e3e525c 3d8b53dc 3d9b0b32 3e7c4d25 3e7af0f9 3e4f5933 3ba32f01 bd51c32f be15a4a1 bc8cb401 bdf0913c bd85c80a be1fe328 be80e7a8 be9867dd be5d376a 3d04508e bd432fc6 bd828765 be213ea7 bd179eff bc544fe0 3e1dfb0b 3dcfd265 3cb3486b 3e8f32f4 bd0c836f bd7e7746 3db8de6e 3e3401dd 3e833e4f 3ea33e30 be231b4a bddf2839 be4403e1 be168f08 bdabb5eb be099245 bdf71d86 be583107 be4196b4 be338eb8 3d302ad5 3be9a9b5 be16de6c 3cd985de 3dd0fcdd 3d55c7ee be4d64c9 be8b4bec bea0e9fb be91f9ed 3d8c267f bbd0427e 3dffee99 3d954963 3c6fe4c0 3e40a112 bbf62fc0 3e4b2a83 3e1e8da5 3e312836 3e1cec05 3d37e006 bd30a6f9 bdd2f5bc 3e3fbc7a 3e59949b 3e2c28d9 3d852684 be316d4c 3e0e2f29 bda14e0b 3ccc83c2 3d0ec86f bd57b331 3d5940a8 be5c1504 3dfb8950 3e807f71 bbb10d3a 3d2ae072 be0a9fa9 3e861a39 3dadb23f bcb75775 3d2bb9b3 3e584fcc 3e415bdb 3e5beeae 3bf1f4a9 be5ad269 3e6dd2f6 3dbc708d be0f79f6 be513c42 be979a16 bccd4e79 bbe8360f bdd7de42 be0cd084 3dc6bb5b 3d87ecd2 bdaef6e2 be7a2dca be650493 be38398f 3e7a7aaa 3da99da3 be272ec7 bdb75f4e be79774d 3e09e07e 3e92005a bd7f4a25 3e0a349b 3d294519 bd78d255 3e9b7260 3de31969 3e90f656 3e846594 bd6105ca 3cff972a 3e15be76 3d84be55 3db58d56 be8f07d5 be292002 3e585baf 3e9501bc bd1786b5 bea2aba8 be9c3388 bd3d4013 3e77cb78 3eb5a61d bd8d0515 be737b7e be192968 bd8e8f00 3e9d82c6 be3ad72d be4c3735 bea7ced0 be253a86 be0157dd 3e5786eb 3e6fac5b 3e27e19f bdb15191 be5e7455 be1c9b0d bdd16c6a 3e8e962d 3dd6c075 3e04c525 bc2417cf be3ae7d2 3e20ac88 3e2bf7e2 bd782708 be7f0fe4 be6192d9 be29a70c 3dee0385 bb581383 3d9b91d0 3d08bb6e be398282 3dfc0737 3e175595 3d74aeb0 3e49ce99 3e3b19dd 3e21d5db be924868 bd723d60 3e6de03b bd92d655 be5afd33 be02b26c bdb565fe 3d401557 bd088f2e 3e33f2ca 3e01f237 3ca2cbca bdaa8cd0 3e45079c 3dbf7533 3e1e9811 3db1e14c 3e1cd5d6 be5467a0 bd98acc0 bda5f06a 3ddd8396 be4b4635 3e47a7cc 3d97ab6e be268d5b 3cf749c6 bdfa5894 3e1940e6 bdaed92f bdc1cc13 bdf44aeb 3e3887e3 3d425be6 bdf8c470 bd00f323 3d1c5bd5 3cb47bf3 3e05b019 3cfcc0c2 bd52be17 3e038e33 3e15970f 3e744706 3e2240e1 bddc9197 be048ebb 3dd409a9 3e8425cc 3e56c02c be20484b 3e2fcbd6 be1163f4 bdf1837b 3e769cb5 be42d5ec be6c2e8e bb30236a be563d0d 3d34e231 bd4c5c9f 3d4aea96 bd69b03e bcb35167 bd285cf6 3e7ba84a 3d836315 bd082b2d 3d220101 3dc44737 3e60532d be648ac9 be1cc402 be5a3dc7 3d764866 3dda2fe9 be9b8d9a bd959320 bdbdeac9 bdbf473f 3e5b827d bdc41eab 3dc9e146 3e4c21b5 3e16ca10 3e743ee4 bda42587 3e539a96 3e675fa9 3df1b5b0 be0b2e17 bc060884 3e07516d 3d37f21f bd7dd316 3e00e60d be959b62 be627860 be7051fb be207edd be8ab7d7 bd433569 be819537 be66362c be0b1fb8 bd3de2b2 be57b5f0 bd0d3b32 bdac8ec4 bd97d98b 3da1e55b bcffe1c5 3e113d68 3e2c2691 3e8998a0 3dcb9d1a 3e461547 3e8a4195 3daf68f2 bd4bd4ec 3d43135c 3e38bc1b 3e1110a3 bd5042a5 3d3e3f84 bb857d3e 3e60eeaa 3de0f080 bdcd17f0 be207c1b 3cbe1a5a 3d137d3f 3d9023a6 3d2b292f be7d8cf3 bd6f112f 3e0ba629 bd67b2d6 3dbfef20 be443682 be795754 3e689bb1 bddc74ef bdbd645f bd2dd5e7 bdf9bfa9 be17e6f0 3d38944b 3d141710 bdfe2fa7 be4186bf bea99309 be286f46 be02b3a2 bb749b2e 3e0fd387 be0542a5 be748366 be954f5a be289a93 3ce2698a 3e268f9a be06b87b 3e049a5d 3e01c25b bd21bafb 3d2a83ff 3e73d1da 3e923030 3d7f422c 3d904391 3d9f631a bc023470 3e147430 be3e87a3 be2be39e be69373a 3e2db9a3 3e6a79c6 b9ed905d be29a8e2 3bf0170a 3e485c05 bccb649c bc98a823 3d8b41f1 3d5bf585 bdea0f60 3d77edbb 3e70b012 3e510cc5 bdaadcc7 bcc9d671 3df1f24b 3e495a8b 3d24759d
conv.0.bias 32 3d506155 bbf371b8 3df0b11d 3b4aaad8 3c7b375c be1dc2c5 bb8e27c3 bc8dfa1f bd04a304 3dd91d53 bcd600d9 3d3056fe 3e2c994e bbfa0e02 3d9af69f 3cb84716 bc49c918 3e0b0e68 3c7859e8 bdd5420c bd73c198 bdea894d 3be03cec be02070f be078e11 bda61d7d be0fb0c8 3dc3d7d5 3e555832 3dbb2dec 3e151325 3db779ea
conv.3.weight 51200 3c68e0bc 3c9350f5 bcbfb7bd 3be6c624 3b95c6ad 3ceef66c bc3956d5 3c1070d9 bcbd6a7f 3c2779e4 bca8a114 3c2beb62 bb5f3958 3d35fc68 3d10e7f8 bc7d9a81 38096c80 bd10a545 3cdf6ca5 bc8d0c9b bd89beba 3adc8dc7 bd18aef2 bc7a31a0 bd639ab4 3d3143e0 3ca30f70 bbd13f24 bd3d62fb bc9fdf3a 3d9fc411 bb3ec539 bd4888a2 3b6cb68d baf40590 3d75749b 3c782b05 bd5e6162 3d29f5c9 3bf6b0db 3d14a943 3d01a2dd bd6a9e28 bd9fd321 bdde8b60 39aceab3 bce5d165 3cc6eb9e bc5dc84b bd10b36d 3ca6b2fd baa50341 bbaeeb5e 3d1c087f bc431bff 3cd76e7d 3b8593d8 3d449c4f bb9daf97 bd2669a5 bd26c947 bd3c141c 3b280d90 bd130b4e 3c7519b6 3bce278f 3c7a44b4 3c31feca 3d939e2a 3db4d517 bbd64916 bd436be8 bd3d2b79 bd714f56 bd42c36e 3d3eced0 3d56da30 bbf0a130 3c8ef997 bd1881ae 3dacd59f 3d015677 bbbd9bf6 3c0a5002 bd3f1230 3d16e6a0 3c3ecb2a bd70b9b1 bc6b0866 bd333d6f 3d43897e bcb38e32 bcc7af9a bd2f3f36 bd973097 3cb35011 bd769f6c bd851917 bd83785b bc11e3a4 3cd6e8ba bc82aca2 bd77dd01 bc439256 3d30f0e1 3bbb1682 bbaa0dd5 bc852ffa 3d0bad82 3d581a10 3cd84ee3 bd46d49a bb86d6f0 3ce7942b 3c940724 bc8904f1 bd4f0f93 bd5764e7 3ca356c4 b9003c2c bb1102df bb9df179 3c87c399 3cf61453 bcf37b68 3c94157d bcd387c6 3c95544d 3c68965e bc171692 3cbcdcf2 bbdacb8d 3ce4bf32 3c9b22c6 bbb390e5 bc938753 bd9b3131 bc9dcdcf bcd95215 bbd47ae1 bc99be92 bd627794 3ca6a247 3caaed0d 3d8955f3 bc82d375 3b998581 bd13738b 3b909e9a 3bd4b135 bcb2e4da bb873dc8 bc7a10b4 bd8399df ba946b6c bd0a5535 bc406fe1 bd49bb02 bc54a361 3d04bb79 3cc302a7 3d45a168 3d24b447 3da77da4 3deff21f 3d190120 3cf3da91 bc7a7614 3d70c7c3 3d66b77c bc360760 bcb04476 3c82e90e 3d0707ed bd389e15 bd0c473f bd1125c5 bd1099d0 bc039a13 bcea1828 3ca26fa5 3ce00df7 bd96b00b 3c8c4cfa 3d2788d5 3d6a293f 3d0f60e0 3abc0031 3ca0782c 3d4e3967 baed8796 bd23d26b ba2b8d34 3cb62ccd bbee9433 bcc64eb9 bc652e32 3c172960 bca63bd1 bcdf16b0 3d00187e 3c61b3d5 bd7394ac bcac0324 3d1bac78 3cac4660 bb1749e2 bcf3f3e1 bd10d076 3caad2fd 3cbe3a45 bb9a680a bd48e027 3c1852b0 3d8e97df 3d2e6994 3a9ddc0f bd31e367 3cca2b8c 3d0d6d1e bc81be18 3aa95f02 bc04bda0 bd32b9e6 bd7e3041 3d0e7ba6 3d40de9f bd4b778a bca671f5 3c34f339 3d5af277 3d50f52a bc8f4105 bbe7d8e9 bafaa9d2 3d614fa1 bbb6b4bd bd7909e1 bc116158 bd493056 3d47f2d9 bd3ddb76 bd8edcac bd4bcedd bbe091d8 bbcdfc37 bc996f50 bd081835 bd93fc9b bcee3520 3ca0d0a2 bd329b11 3ce834b1 3c96ed39 bc10aeb6 3d42ccbf bd44f342 bb513ff1 3d19281f bc7b7c43 3d6a06b6 bd2d9932 bcf70d4f bd3112c1 bd216abf bbc57966 bcbfa73a bcdb81d2 bd00f5a6 bc86e974 bd6aacf8 bd81dab1 bd7c894e bd37ec5f bd101fa1 bd8a0099 bd64f7cf 3d83bb38 3d927f59 3d780921 bda8558b bd80086e 3d9b3f91 3d6cab39 3d8cae74 be05d611 bdd1a197 bb693cbb bce8162c bd3f29ad bce57ba5 bcadb8ef bd8ff94e bd84c7b9 bd813c03 3d5b7ed6 3b85ce30 3b791a5f 3d477e78 3db8742b bbea9cb8 bc2c4307 3b0a60b7 ba25c40f 3c61bfa5 3d33fbbf 3c1ee2a5 3d368201 3c800a4d bc2fa7c3 3ca70aed ba023864 bcfae969 bc89cc84 bd2a9504 bb53bcb5 3bb60fb2 3b860ba6 3c9e9f4d 3ca756cc bb6e4b5f bcb39520 bce4f831 bc01e0f6 bd24891a 3c8b262a bd05500c 3d168490 3cfd1dff 3c8bb00a bd7f28c0 bd49027a 3b8c5979 3d16b7f9 3d26f7e7 bd7d132e 3c096272 3cdfb216 3d30ee04 3d5f98a0 bce7e9f0 3bf21b0c 3c9997b1 3d1fa51c bb629099 bd0b7fa8 bd00f61c bd2c4cba bd7a35c6 be0493e5 3c177896 3d0e7a1f bca4a9e6 bd975d97 bd9080d9 bc6202ee 3ca4a493 bc83ead2 bd55137a bc25fa83 3c8aeddf 3cb222b6 bd1548a5 3c62d2c7 badf960c 3d066b96 3ce77507 3cad5c07 3d83b680 3ca6fd62 3c5e7fbe bceb601d bd2f093f bd026d75 bdaa6b12 3d2fd745 3d1b79fc bcea04d2 bca3e7f4 bc42abb2 3d28d047 3d037ecd 3cb536f7 3c0815f7 bc6b53bf 3d41e105 bbe93ab3 bcce3460 bcf54b73 bd02dc2d bd0bd563 bd018899 bbbe9740 bcc8c5f3 bda02859 bb99e98a 3c8ed253 3d017008 3d041d6f 3c5ac1bf 3d58eeb3 bca79199 bd54d0e5 bd086034 3c5fbcf4 3d684377 bc56ebb6 bca80c89 bc639005 3d6f785d 3d2ef89a bc91d126 b8a6aace 3d2e665c bc4e4d75 3d13a06b bcb08286 3c164a5c bd616d31 bdbd8f14 3c156418 3cf8abf6 3cd979d7 3cec2bd5 3da440c6 bb9d1ad4 bac14d01 bc5cc5ee bd59e332 bbab4358 bd85c276 bd87ef69 bc7b4bed bd713b2a bda2c119 bcf26f72 bd877369 bd1f6461 bd6177cd 3d20ce0e bcb54dd1 3d01cb95 3b928014 3d7051d0 3e13d3d6 3b09c45f bd5397b2 bba87dfd 3c452a0e 3c94224a bd30deca 3b44e14f bb882afd bd3912d9 bd48fb38 bd539d1a bdb95787 bd978d94 bd6082b8 bd4a0f51 bd250047 bd787ee1 bcdd1d99 bcfa0037 3dc7b9d7 39c2cea5 3da8b52d 3dd621b7 3e3513f0 3e494e65 bb1ccf5a bc3cac73 3d9554a1 3d8ef386 3ac68687 3ca0a94a 3acdc6de bd718694 bda9534e bd05a01c 3caca1cc 3d21d165 bd03de9e bce807e5 3d33b4df 3d38b5ac 3cdc9280 bd48da7b 3bb93abc 3d905713 3c2315dd bc791ef8 bc4691ed bd718633 bd7af9a9 3c943a2c 3d90de1b 3dcd714d 3d8b6dd9 3cb95577 3d49c7fd bc946b6a bc4baa1b 3bd052c2 3cd4f96a 3d87001b 39197a30 bcec7b18 bcc0cb46 3d30a074 3d80b217 bd8ef1c1 bcbc396e bc4f1dd4 3d862cce bd259ff5 bdbd8ba0 bdc84378 bd6f3d0c bd972413 bdad8a74 bd8f3514 3c37aa8d bbf2d0e9 bd3fcea2 3c51b388 3c4ca3bb bde09fd3 be035013 3c2efc0f bc7d9e7f 39a721e0 bcffd862 3c7960ba 3d8cf3dc 3c638b58 3d79ecf4 bca6c83f 3da2e377 bce53864 3c650b6c 3dac10b6 3dfe6929 3cefd81e be0801ba 3d15a9be 3db8cd0c 3e268912 3e45084f 3e0c784d 3d2da3ff 3d96a152 3abe9399 bd24c0b6 bd553b9b 3dcf688f 3dfe805a 3d8b0d95 3ca3ac07 3d27d731 3d8b3f69 3e02c91c 3e526b63 3e3069ef 3e2dbaee 3c80503a 3c1fd476 3e0fef1c 3d4e69ea bd8e440f 3d397d26 bdff9616 be0bb4e2 be356653 be57a557 3c0c6aa6 bccbc15b 3c61630d 3cae02cb 3bfc1cf4 bda825d4 bdb1a727 bbadb85a 3b31d732 bbf56812 bd6bb901 bd4e9eb2 3be036d0 bd0b020d bda8fdb4 3b8a2ba5 bcdb8017 3d00dc81 3d7a6859 3c4feb3f bc3b4706 bd246594 bc91324f bd429398 3c4cac1a 3c999270 3c1b0056 bd49618b 3bc73098 bb14b89b 3c16b6e5 3bbab690 bd13fda8 bc7b1df7 3cbbed0a 3d3d114f 3b5e301b bb091617 3ceca672 3d941867 3d618dc1 bd0d3f04 bd00ee0a bcb8b4bd bd6826d7 3d1a1155 ba82d239 bcc81afd bc79445b bc0d8ef6 3b2e7d8e bc7f91b4 bd6e192c bd016c14 bac82af8 3cea239b 3d0215ea bc9918c3 3ad38072 3d4e2a26 3ca31949 3c94e5d0 bd222f5c bc223203 bbdaf699 3a5a62de bc5f57dc bab66886 bd6c0972 bd5af7b2 bb352495 3d276c33 3cfbbd35 3ce411f4 3cf9df08 3c038942 bca65006 3d32f07f 3cef7e38 3ced2ce9 3ab2e3eb bd0d0b40 3ca499ad 3cda4ca5 3db0634a bd19978e bd42dfbf bc5ae132 3ce639cd bd30c18f bca7e1dd bd7040df 3b59c04d bcaea085 ba77f921 3c0254ce 3d1c0325 3cba8b46 3dbeb46c 3dc7ba9b bb1554fc bd7ace9c 3c79ff9e 3d21fbaa bba433d6 3ce5d952 bd30a281 3d120834 3ce51cd0 3d1393a7 bc83250b bd4cde54 bc41a43e 3d4cbe11 3d21730e bd864567 bcfafa3a bc8cd58e bccdc584 bd3831d3 bd108124 bc723866 3c022927 bcf8d1e3 3cb4bcc4 baaaa405 bcf082e8 bc063c81 bcbd8d22 bd5c2f05 bd44b652 bc56c640 bc8477e2 bd39be88 3ca1342a bda41f85 bcbc88f2 bd340bca bc8b701e 3d313785 bd1aef6f bbd4cb48 bcd6ea21 bd5530ef bc898b4b 3d16c93f 3db7ed29 3d95438c 3dc9e11e 3e34f697 3d77bc60 3d4fdefe 3c983c59 3d450ff7 bd11b18c 3da0d115 3d57320a 3b4636b7 bd2b8581 bc6e1a39 3d3edaa4 3d3e991d bd8adb69 bd104c67 bc088d60 3d43d4d3 bcae42e6 bcb719df bc3b556b bcb4008e bb1497cb bd690b0a bdb6c9b7 bd89850d bd17b3b8 3ba186cd bd064b7f bb8e663d bd66ddd5 3cc5df95 3cd84a27 bcc02f25 3c956d1f 3d58edde 3cc49f62 bd14e718 bcf0c950 bcf8161b bd36cef1 bcf83480 bdb5cccc bc46399e 3b9dd266 3c329f38 3a979124 bd0fd668 3d1da18c 3da550fb 3e0403dc 3dffe7b5 bb267041 bd0b2cd2 bd2a367c bc24fe4d 3cc09f78 3d19cf57 bc8dca00 bc514c3e 3d230cb1 3d581bbb 3cab9291 bca3b21f bc08b6d0 3b11020e 3c436f7c 3d0b9483 bd631a17 bd8ec7e8 bd9a99ac bda4667d bc300477 3d319edd 3bd05dd7 3c8306e2 3d27ad59 3c95777f 3cf560d0 3d101207 3d354597 3ca7236e 3c65f2bd 3d05c423 3c31a10c 39dce7ef bc28d98a 3cbd3f72 bd1c3403 bd28806a bcebbde3 bd3cd7b5 3bd021ab 3a100b54 bd1a63e4 bd48b492 bce313fe bc9892d8 3b09a7a6 bc5d426a bd0e50a8 bceb29a5 39f7cd5e 3d32a909 3c447a79 3ce9fdac bb50500e ba865ff6 bd35a649 bd510d3c bcca51b6 bc7b59fb 3cd00a4b bb4b7215 bd854d7a bd127dd5 bc99fff7 3d93f57b 3d2cbb28 bd69abc8 bd8931e7 bd1f359c 3d20d815 3daae1b0 3d81b30c 3d1f0634 bd1c5aba 3ba4ac87 bd3153ed bcc79be5 bbd73127 bd12d5dc 3ceb96d2 3cdb9693 3d231017 3d34f9c6 bcafa12c 3b27f4dd bcec5f3a 3cade6a6 bbefc46b bd5166e7 3bbc03c5 bc9af9e5 3c887d97 ba8d51e8 3be6d448 3cc94c6d 3d124bef 3d2cb74f bc3de995 3d154599 bc8257f9 bd24a110 3b8997f1 3cc30b75 3d627af8 bd063ff3 bbb7dc4e bd2e77d9 3c79fa0a bc519b51 3c13d89a 3bfe65be bd417b0f bd172411 3a4357d6 3d08d7f3 3d93856c bd38729a bd8b9d67 bd9d3993 bb6913aa 3db3a337 3dc5c29b 3d143d58 bd89b770 bc9441d0 bc916964 3d185681 3d2aaae6 3c29259c 3c2a1293 bbbaeaf7 3ceb5200 3cbd33dc bcec9a0d 3d2fc5a0 bb4b3447 bcb0f05d bd370dcf bd454917 bcf534ef bc6999b4 3ac6ec1c bc6c0675 bd775753 3cc2a210 b8ea5384 3cd0d29c bc9c7392 bd421a9f 3d3fc2d7 3cb40e24 3d19292d 3c1e2982 3d379ece 3d3c4bbd 3d20b657 bc87cd83 3d1c7d79 3c88a302 3d4077e9 bc289a21 3ca3b1cf 3bb1c24e bcb5acde 3c056655 bda600b6 bcbeed3b bcb3521a bc155d49 3c6c8165 3ce9324f bd4b0e94 bc3f58e6 3d382472 bc97ce46 3ceca036 bc71517b 3d69fd1e 3bb7698d 3cfd7d6b 3d21d0eb 3d85832d 3caf386c bc5474d6 bdb6b0cb bdba25ab bd9e15eb bcbcc579 3ba523d2 bd556841 bc36e2de bc6e1cf1 bc64264e 3d8d4fc3 3ba75e9f 3b2986a5 bce293f4 bca7120d bcc4b0d2 bc93d175 3cd178ce 3d3108ce 3c1097fd 3c5ab371 3cfa1888 3cc1f3da 3d0c1cae 3ccbc994 bd144088 bd07ab4d 3b294274 bd533d4b bc604c91 bc473944 3c817143 bbf97b52 bd37f4ce bbab070e 3c939c81 bc0dd5ec 3c5f32c7 3b82c8b4 bd07874e bc385ac7 3caedaff 39bd74dd bbc071ac 3c7334b1 3d06be45 bc7f11cd 3d2703ed 3c21bad5 3d24d10b 3d0ac5b3 3ca4eec5 3c99334a bc3f9832 bd41a6bf bd64524c 3c9d727f 3a80fe55 bcb9ec85 bd44bc67 bc96fa30 3d1b3904 3d00bdd3 bca0588c bce511ab bcb56145 3c0d6e63 3c245a92 bcb25c31 3d342d17 3d08ed14 3d121e02 3c1626a2 395b0e6d bc04c99e bc484da7 3c9b4e40 3c581284 bd4c0924 bcdc7cd8 bd382e3e bce2b806 3cc7fa3b bc2e445d bd45ee89 bc6c0232 bd45416f 3b56df5f 3bde875e bcdf98cf bd93d859 3c74f356 3be10d7e 3d36b44b 3cd1dee5 3d388f34 3ccd86d5 bd926609 3c760dfd 3ceb0f21 3cfae262 3d4cd869 bb3a7f66 bc39cbff 3d2184ab 3bdafa81 3d208938 39c904ca bd76e6b5 3bafd7fe ba8a0b6e 3dd22489 3da7ddbe bc47ee41 bd48b2de bd034265 3d2c2c38 bbaf92c0 bd804cb9 bd06baa9 bca43c4f bce6bbf6 bdb87d50 bda26248 bbf9e7e0 3d606366 bc40383f bd489722 bc1c9c24 3d1af228 3cf38325 bc3ac396 bdab4e3f bdc387d6 bb4c384b 3cd91fa4 3d3f20cf 3d2d19c8 3c55b8cd bc81f142 3d1f27d2 bd1f3dbe 3b1d66b9 bcc319c0 bd237998 bd40a2a9 bc6df365 3c9e3f26 3a2b3ea8 3c809701 bd051af4 bceec177 bbb34651 3c35e284 bced60fc 3ca2c27f bcbcfb2a 3b554392 3ceefe37 bc6e9c33 3aeaa3be bd7622d7 bd9b3247 3ba81153 3cb24896 bae00885 3d016c64 bcb4b784 3c308879 bc512011 3cc97f86 bcf2f020 bcd53a01 bc482dc9 3cefc138 bc85e9a4 bd6894c4 bd2e61a7 3c09e801 bc9cb0a5 bd301fc1 3a9b107e bdbb3381 bd6eac01 3c979437 3cd36ef8 3e01046d bbee4837 bcb312f2 3cb683b6 3d85d710 39885581 3c49aefb bd022fe0 bb5fd086 3ce2f148 bd095a80 3d1558cb 3d47ad27 b7f5b6ee 3cf9ffbc bd35f2a6 3cf74f4f bb01cf79 3b4c1c73 bd1ca224 3c41c678 bd05ec9d bba3341a 3bdb79c5 bbfa5a59 bb480ec7 3b7eb8fc bd0f641e bd6697ef bd03c688 bd31c937 3c544e31 bc7b4796 bc71453e bd1a16fa 3d00d3c2 bc8cbab0 bc0e8925 bcd7f220 3ca0c42b 3b98e6cc 3d122d25 bd42ae6c bc34837a bd4b9e8b 3cf33e08 3d972125 bc9e1e8c bd695a8f bd1bea92 3c8896f1 3d9ab76e 3dc7425f bbf3cddc bcd970ac bc471657 3d747150 3cac817d bcc84ed5 bc9fad2c 3c1e4256 bcb5070c bce3b183 bd2d95f0 bcc1f94d 3cbe6a8f 3d488368 bd35d913 3c3e2fe8 bc2cd5fa 3d324285 3d806a14 bd094717 bd1f2285 bd486674 3d112e82 3d89fc69 3d802831 3c80c803 3c3a489c bdb1be75 bdac8048 bca9fe1f bce11d6a bc9df707 bda55a14 ba8e497d 3d337afe 3d6028ba 3d32beae bd259bce bc013078 3d17239c 3cd5fbbe 3c51a299 bd798667 be02b1d7 bd778eed 3cf35806 bc3d4ba4 bc23072a bd4d0dcb bd107779 3b7f089d 3d77bf94 bd47246b bd8f6d36 bd75483f bbdd1222 bcbdf8c9 bdafad1b 3d177a22 3b84b4c5 3c732d84 3cdaf6ba bd80669d bb0e590d 3c2e6068 3cd68e89 bd1ec7ae bdc09f5e bdc511e0 bce05e6c 3ce0032c 3cdabd87 bbf40ebc bcc8d00a bc1c9e91 3cc8c496 3dbb455a 3cabf43f bc2728d1 3c1db763 bceb988a bc67c4cb 3d0be630 3bb4c963 bd950bef bd1ebe2f bd67d2fe bd6c7b1d 3cae23df bd47fc21 3b949529 3d1f7055 3cd08387 3d31c5b8 bc3a9778 3c596947 3c0bed83 3b669623 3d76922c 3d922673 3c59214a 3c46529f 3c4e7254 bc92ccf2 3c939d7d 3d914e7c 3d500acf 3d59263d 3c41acdb bcaed28e bd3eea06 bd2d9038 3a873290 bd71d80b bde61820 bd72eb34 bd26d6f9 bd3f2e41 bcf68a13 bbcd2f85 bd8daba8 bd3a0b93 bd2161a6 3d07cd0e bc632a7f bd7c8682 bda5b69f bc6384ab bd073c07 bd444331 bd49bc14 bceb08df be02b04f be056bca bde1cb5f bd1c72a1 bb8de842 3bd2daba 3d5a8175 bcfae25b 3d3d5c9f 3dc6e3cf 3d90bc5a 3de0860d bcf27cf6 bd82df68 3d418108 3b3577f9 3dc778d1 3df0230e 3d287b12 3c3fc5ab ba7b370a 3d1358e3 3c7c68ca bd06eaad bc980f40 3d2cd54f 3b9f1b32 3c596876 bcf3d3f3 bd2c4357 bcfc04fc 3dd82b7e 3d807eb2 3d751136 bd798018 3dd7a878 bd62d70f 3d0f4f1d 3e364617 3e1e264a 3e375e2e 3da763d0 3c9a16d2 3dfeb54c 3dc5aeff bb98ed4d 3b12aef8 bc84f6b1 3b0bdeb2 bce2ddf4 bd36612d bd703561 3c0d13c4 bd632141 3c8431a5 bd310590 bd763610 bb359dfc 3d08620c 3b8b0b64 3da38ad5 bd0003ed bcbc8179 bcb6f490 3caab038 3db6976c 3da76387 bcbd1649 bcfe64e4 3d80622d 3d1f03f5 3d89ade0 3d801bac 3c88653d 3bb0dde5 3cb68f86 3a7fb8d2 3c885a4d 39bc3144 3c190824 bc508861 bc245eaa 3c01f2f8 3b0b8c14 bd10f42b 3b7451d7 bcb6bde6 bddcecd0 bd9b14bb bc83cec8 3d2e94de 3be770fa bd1e60ee bd853bde ba958855 3a20f933 3d8c3239 3cf63ca0 3b9895f0 3c2aa974 bc85488b bd6edf8a bd6c2585 bd482d20 3be909be 3d801f52 3d3f79f7 bd888a92 bd5a0935 bcc4329d 3cbea0ee 3c9d46cc bbc979cc bd6f75c9 bd2f0ba4 bc39c0c8 3d8ed609 3da0ba02 3c45ab4f bc89ecc3 3d69f879 3d2197c2 3c935f4d 3d4ffcbe bc52884b bd3f22cc bcdac03b bcd2e988 3c9f68d2 bcef9de8 bd242b0a bc01c159 3cdc6adf bc402652 3c57a2ee 3cb8cc3d bdd2772d bdbf011b bd0cbfb0 bc24cca5 3d9dee69 3c8a2a73 bba5007c bba43086 3d964ac9 bc90388c bc1e2fb4 3cda3ee7 3d0c7aae bb24a876 3cd28073 bb516c39 bc629dd4 bbd25576 bc5bd64a bcdef2ed bd5bffce bd9aa8f2 bc9195c8 3cd18777 bd5167d8 bc83de02 bd42edb9 bc25e5ec 3cd7c4f5 bb5b263d 3ae77c32 bcdea2d9 bcf6107d bd09102c bcf9adbc bc655071 bc82081a bb644433 bd73fb87 bd9c8a17 bd8f23db bcb7ee37 bd58468d 3d1a4a75 bcf704b1 bc55929d 3c31182e 3cb1f941 3d998e6b bc12ca43 3b831a60 3d2db9de bd43da25 3ba6b08e bd531d8b bcad43dc 3d27e0c3 3cb00a56 bc0d385a bd39f383 bc9f306a 3bafb565 bca28690 3d2558d5 3c50c9e8 3c4c59f2 bd1b8104 bc5f2c72 3b0d562f 3d31207a 3cd59044 bca45e72 3cacfd42 bc838451 bcea3062 bbd72ae2 bd0afe38 bc7bbd6a 3bf73d30 bd4c75d1 3cb03367 3d2deaa6 3b149bf3 bd23e7d4 3a3ef30d bd29d091 bd40b36d bd82888c bd946500 bca1bd35 bd73aa1c bd6238b8 bd27c5ca bca7bcda bd3bafcc bd73f539 bc07b701 3c9e62ef 3cdd8d38 bd1a1635 3c8dbe07 bca384cc 392bd4c4 3cea5deb bd55f773 bba781ed 3cd546de bc3cb0cd 3af486a8 3ce3c4d2 3d2e9f3f 3cb11cee 3d234ce3 3ccdba0b 3bffa107 bd116ed7 bd203f1a ba897cbb 3c39ba35 bccd89a0 bbc0806a bd6e56ef bd47a422 bcfca4c5 3d3b1348 3ce472ad bd7a4037 bd6c4e3a 3cbdba61 3c9d6384 3d3ed27f 3c96de89 bd3497b4 3d1bcf54 bd4dcef7 397b56b3 3c386c71 3c5d3734 bccb8161 3d4b312c 3aaca758 3d35e53f bc627437 3c4df0f7 3d41ecff 3c65cab2 3b4d5a86 3b9d67c0 3d6b2756 bcfd4744 bbee4560 bb59726d 3d062290 bce6d8d4 394c53e2 bd42927b bd041028 3c942e78 39e0ab19 bcc24408 bcbd07b0 bd18a004 bd45aa54 bc70670c 3cc505b2 3c3434cd bbc64a59 bc54b173 bd304296 3d4e6ebf 3c161066 3d35fab0 3a08ff4d 3d0f8344 bb487eb7 3c3c4361 bd00ec30 bd52ad41 bcc3f5c5 3c5d985a bd918c4b bde5e66a be0034c4 bd7f8453 3c272921 3c17a289 3cdfbf7c 3d515c5c 3d0c9955 bca11ca8 3cce9e56 bcc331a8 3cae8883 bce4a8a8 3bed016e bc9a2b45 bd1cdfee bc1682fb bc82d0e3 bb211867 bc755589 3d4db1f7 3d84acd7 3d91a283 3d842e2a 3d87d167 3d411fbe 3cf4a3b6 3d434702 bd0c67c6 b9a298b3 bd536667 bd557c02 bcbc7904 bca4402b b95bf87f bd1ace62 bd24f6d9 bd1d352b 3c0e3279 3cf7d532 bc477a0b bd811c00 bd776840 3cd66009 bce30a71 bd0c5ae2 bda5c42f 3c720697 3d333c12 bd147351 bd7c468d bd7ca4c0 3cc186e6 bcc41a39 bbe6a05c babdfe10 bd2e56ba bd468b6b 3a2e91e7 3cda82e0 3b1c33d2 3cb638c9 bc8f8db1 3d1d5924 3d2d0d01 3d0b12d8 3cca0010 bc41089b bc4a0410 bc9b46d0 bc2b69e2 3cb82b13 bcdcefe7 bd557cf3 bd60a9c8 bd2a852f bd12b13d bc66a06f 3bf7d41a bc6ff8a5 3c18a71d bd2a7e70 bd31f1bf bd2c1f2b bd4a3720 bc8859ac bc1d2f33 3cec3e08 bb02591c bcc84a06 bcb4daa9 bc6961c4 babfdc31 bcf2c234 3afa2529 3c8f3e4a 3cf3fe59 3b5fdd91 bc015dad 3bfd2ff2 3d27d65c 3b5ce164 3ccacfbe bd89e4b9 bd102bd1 bd6dcf4b bd0b6846 3cbdbc67 bd1f2e9e bad3c433 bd0ea1ae 3b1f7ff6 bce4225f 3d1b9a47 bcdf0c26 bbfce64a 3d7dfde6 3d0229be 3d2fda29 3c962b04 3d9d5cdf 3d7414b2 3d0bb964 bd82cb81 bd51419e bcb28f96 bd7bb0cd bdf35897 bd72a08e bc6f3178 bd482295 bd145ee3 bd2f9191 bd4a6615 bced915e 3b60dea9 bc13ab60 bcabf2c1 3d67ff75 3d16f4f4 bca8b1d8 3d47fc9c 3d597336 ba09d428 bbaa6588 3d2a9fc9 3d640fad 3ba39048 bd0a5e9b bd6afe3b bd1c059d bdaad12b bd445633 bd14ac8f bd2160bc 3bb9a5a4 bbf05890 bd1bcda2 bd4d3dfe 3bfbd55c 3cb6f251 bc5c6892 3ca2c505 3b934c58 bcce3a6e 3bdcc129 3c88a2c3 3c47f5f7 3d322975 bb89209b 3d261559 bc54c0be 3d54a406 bc41f948 bd8920ca bd95bb59 bd9fddff bd23d068 bceb7bd3 bcf1d080 bd6cb830 bcd46878 bcfcfc4c 3cb80a4f 3d17fea6 3c3a3b8b bca70970 3bbfe49a 3d024965 3d289193 3c1e8540 3c81febf 3cad2c94 3c8f33f6 bcd84094 bd1ea729 babdbcac 3cad1e4f 3bdf99d7 bd90c2b6 bd13689b bd06aa0a 3d1d02a2 bc062985 3c7672da bced5a1e 3c827671 bc9e18b7 3c599392 bc72f508 3d01a307 bc3f4aa2 bd1d2a07 3b7c5275 bc01a9bf 3ab71bc0 bd0f99da bc6d272c 3c792fda bc862e10 bd0e8eb9 3c7f8958 bbfc1603 ba94429a bd3250db bd0fb4d7 bbbb8faa 3cd33b81 3d75dc61 ba047f0a 3c6e6df8 bd6c29b9 bc9bce13 3c103fa8 bbca7256 3ae431f0 bcac440e bcc9ea9c bdcaf5a2 bd427d0d bc8a8a4c bc95d455 bd35d826 bd26337b bbd94625 3a00476c bca02f0d bb4278eb bc3f4b84 bc55ef44 3cef26a1 3d3f0bab 3db18ee6 bb74c3a2 3c3de5f7 bd61f240 3c3e89ae bd29a432 bcbe932e 3a4ea4d1 3bd2ffea bcc53978 bd0e164f 3bfb7cd8 3ccd882f bc550222 3cab369b bd45c607 3b4f047f bc002897 bd0b1e80 bc4466f8 bcb4f4db 3d9756a2 3c7d2254 3d2ea5e2 3b8d32b1 3d0d01e9 bcce8404 bcc35f82 bba900ba bcfd403a bc9d2f9c bcf75932 bd632cf6 bbfed65d bd8f1849 bc7e99b9 bc933278 bca8e3c7 bca57f53 bc95ef78 bcca6c34 3d8e639e 3d8dace2 3d109c2d 3c3a4709 3d2fffd1 bd30d978 3bfd8da7 3c8ab070 3d212356 bce08b79 bc966cac bd2b2501 bd07ef17 bc946620 ba053a03 bd591b44 bd8d1cdf bd033e48 bc1b7e16 bc729cf5 3c527eee bd16d049 3c2b5dd5 3cba26c6 bd1bfbfc 3d815eb8 3d738e1b 3d291105 3d0d6183 bb523f00 3d057f02 3c29f4a8 bcfd4dbb bd2961ba bd82ad1d bd403fe8 bcb023d9 3c18ca87 bba35da6 b8ab41d1 3d466c0f 3bbca7c4 3ce85056 3bcc1be7 3d28a9d5 3d4d7629 3cf93cb9 bcbf9f18 bcfafc25 3d578e8c bcdb866a bd862b1e bd06c579 bd94602e bd11ce0a bd187ccc bd7ecde6 bd69a64a bd19caef bd2022d9 bcda70db bd0432d1 3c8f5c1f bbcd62ef 3c1eb235 3ba4817d bba73f0c 3bd985fe 3cdf57c5 3d4d6338 3a7ce144 3d0985c0 3ce6d043 3d333e3a 3d5077e0 bd8e1151 bd076e71 bcb2954b bda0bc80 bc2e9d22 bd16a5e0 bcf0a769 bcd8e946 bd492c96 bc61a5d0 3bbd2aaa 3c5d70b8 bcdfe3f0 bcf284c0 3c99edbd bd0988d6 bd8536fa bd770fb1 bd31042d bcee50d5 3c1e4062 bcf892c5 bdb6c2bf bd470146 3ca546e6 3d19b0f5 3d4fb268 3c781a7f 3d54d737 3d4c33f3 3d0be6e3 3d456289 3d960593 3dab1970 3d6a2a69 bc648497 bd386988 bd31ba4b 3cd988b8 3d01b7f3 bdf53fc5 bdd82fd4 bdbc8cbf bcd628ce 3c6bd223 bd099b26 bd89dd2c bd1bb4e6 bd942cd7 bcfd9e18 3d93aa31 3d2a26de 3d9a90b4 3d2dadca 3d8437ec 3c621ade 3db2a7e6 3d5eb25d 3d798f6f bc81cc67 bda537cd bc07606d 3c37a869 3cf5e201 3b8e1875 3d0d4df6 bc925dd1 3b890f85 3ae33e08 3c748344 bcc9c930 bcc043d1 bd1c3b01 3d12a4ab 3d8cc388 bd4e1116 bd44351b bd5e6171 b97fb357 bcc7a072 bd6284d9 bd356a74 bd947c02 bdd9bcdb bdea1635 bda0dec0 bc3313e3 3c66c7bd 3bf7e289 bd289618 3d04a572 3ce86359 3b345b18 bc34509c 3cbad882 3d2a9607 bd390dc0 bc43b2b6 3cffa15f 3d29559b bd3be04e bd1e2574 bd42bbbc bc25fc83 3c4e9547 bd8548b5 bdb0bb2b bdab64dd bd587a7d 3cd19e06 bd8818e4 bd6bcbfb bcdf486e 3d21be85 3c7ce055 bd55c46b bd08d1aa bcc330c0 3d12ad51 3d826cb4 bcb6bb5d bc4000a3 3ccf3815 3cf2eceb 3d877c18 bdf96460 bdc2b5c0 bd5c1736 bd71ae19 bdd03a60 3bde5b9b bd16505d bc94102a bcff4a66 bdf94e7d be20e8c0 bdf4996c bda567a6 bd8ffe8d 3cd68870 bd848c79 bc8959c5 3cbc7fff bdcfa870 bda6a8ba 3b0e8d68 3d790af0 3d8407c5 3de0432d 3d461d1a 3ca7901c 3e01343b 3dfceee5 3d117fdc 3cb6046c 3cee42cb 3cd6f817 bd8a0fd2 be139d57 be62335b 3c185575 bb958230 3c7a5f75 bc34e216 3d34c0ae bc983c94 bd23d8a3 bd0b474b bb88f331 bd0e125e bd4bf890 bd079960 bd0f334b bcd4f764 3c09c61a 3ce39f20 3c539820 bb97f6cc 3c856d26 3c2f113a bd30cb36 badfd417 3cf20d0f 3d495b4b bbb9585c bd2b9c56 3c9ddb63 bb8d6846 bbb2cc80 bcc66ea7 bd778d27 bd7cf710 bc228039 3cc9cf06 bd01f367 bd1d820a bcb98716 3d772de5 3d94149e 3d0f031f 3bf7fd1e 3ce1f3a2 bc815673 3d3fc979 3cb04116 bd2d2873 bda5a391 bd97f1f8 bc212e45 bac3a4fc 3c4a6fa5 b7958f22 3c375b29 bb498d23 bbc4df70 3cbc0756 bc0252f3 3d114a80 bca155aa 3c983d2f 3bd53948 bcee6af4 baf43830 3c013716 3d131260 bd05784e bd52ae4f bdaece85 bd414c1f bd395d80 bd387214 bd39dd7c bd5e88dd bd8142d4 bd23a142 3c9a9438 bb79be74 3c1bda25 3ba9b5e1 bc2095cc bcdd118c 3c9cbf20 3cc455d2 3d27064d ba10d47b bc4f3028 3d4e6be2 3cf4eb9d 3d9654fc bc32b4ec bd3190ef bd55e63a 3a9ab980 bc97ba10 bd7379b3 bd0b5778 bd417838 3d174b9b 3c8618e1 bbf74c1a bd873f15 3bf3262a bd030eee bc1d1af3 bc16dce0 3b3ba41d 3d1d5339 3af4e3f5 bc03ae78 3c649cc6 3d0ecb68 3c997dff bbb1a444 3cc82160 3d7b6144 bcb88ead bd71f47d 3c7f58cb bc76f489 bcba280b bce1cf0b bd106c29 bd5332bd bcff48f0 bd401b35 bd5d51db 3ae4f163 3d137abc bcc42b79 bd326e0c 3c96e28b 3cd7515e bd39aa6d bb07e2db 3d050bc4 bcc276fd bd2674a3 bcb31e01 3d11ecab 3d1de633 bd750182 bd699035 bd9bbe82 bd2853b5 3b3fb9db 3d409422 3cac4878 3d196e41 3c60d877 3d46bee6 bb5f17cb 3b5a5581 bd4812c4 bd0f1719 bda45307 3b75dc0b 3c9887b7 3c6f6402 bbe8a48d bda16fc3 ba1c3bb3 3c8a84f6 bcd2a23d bd606145 bab39502 3cc55e61 bbef6f73 bbf36f15 bc592eeb 3d3a68fb 3d2d05e3 bd028d84 bcc9b76c bd174f4e b81d9368 bc22b817 bb378f6a bca3c23d bcc50007 bd326d5a 3d66604b 3cdd53bb bd1d5261 bd111957 3cae7a4b bd12e17c bd399ee5 bcfd05c8 3cdda2c7 3c967a75 3c3b6fba 3b909911 bcba3fda bb0f3ff7 bd76d704 3cc5dd0b 3d7cd2e4 3ca3b3a3 3d25448a 3dac59de 3b058ede bce2ed3c bc1b5234 bd4c0b1b bc405985 bd0ca785 bc96ba1a 3d08ea83 3ab06abe bc6022f5 3d461000 39489d71 3d2a395e 3d837765 3d60c1c3 bb12b158 3c5a9dfc 3bff1eac 3c014226 3b0de6a9 bd587ae8 bd837f93 bd80dc4b bca69623 bd40ffe1 bce554d3 bd11d6f9 3b1f6cd5 3bc6e878 bcdbf95a bd807422 b9ddc99b 3b0e2c22 3d545942 bc17f245 3d10ad69 3da84bd0 bb861763 bcb7eef3 3bcc2efb 3d5bb872 bca2c02f bd07d314 3c13348a 3c1063d5 bd0b26a0 bd678373 bb18d8b1 3c4ad4d3 3b13951e 3b42f764 3c2d1901 bca3e720 3d177716 3cdbdc4b bd6d4ea7 bbbc01e9 bd07e7fc 3c253810 3ce24fe6 37d8d29c bd8aa6fd bd275090 bcff7fb9 3be692e5 3d20df5b 3ce66abe 3d25378e bd321798 3cab4949 3d01847f 3ca05f90 bc0b6d85 bc9ad37f 3b96f651 ba126f75 bc6da7f9 bbddc524 bdac7f72 3c42c733 bd38e09b bd3605fc bd88bc0d bd07156d 3bf99ef7 bbe8a6f6 3d1363b5 3ce25d57 bcaabfbe bd1e64f4 3d31ba7b 3da5e8e2 3c9b1304 bca62829 bd7b6002 3d662505 bc53b344 bb625dec 3c8bc5b9 bd3ddb12 bd170028 3c0c302b bd33b8d8 bbff56aa bc6b7cbb bd9de614 bd579668 bd130752 3ba967f7 3ce24fff bd4c339f bd656814 ba3506fb 3b73dabb bc8e52c2 3d1e52a9 3d2a0254 bb8a16af bd4a7fc0 bd63e367 3cf58d8e bcb5789c bb4a1f7d bccb8b33 bcca5ba2 bca6cc96 3ad42110 bd384175 bd08a47d bd451e84 bc389c30 bcf6a8b2 3c493de0 bc49f18d 3cb06812 3d115118 3d89696b 3d7e272e bcb2f7e7 bd536ab1 3d91776e 3d4cfdd9 bbf2b6db 3c9bf1ff 3c599e30 3d1ab94f bcf6d416 bd0a28fc 3cfcea6b bbf5a328 bcdbd5c8 bcf37faa bd8691cd bcfb5a3a bd298035 bc2433ec bd083ec5 bd4a20db bd314beb bc446e1e 3ce7f316 bc84babd 3bde15f6 3ca2e7af bc191e74 3d22e330 3b9fac20 3cd8848f bccb1447 bbbad4a7 3d2fce91 bcd7f145 bc5ecaed bd8687ed bd010b9e 3d37d4a2 3c90cc3a bc74387f 3c4ca49e 3d369149 bc4dfffc 3d9d180b 3cffa6fd 3d0d4cca 3ca85016 bcb3efa8 3cb97ec0 3da7e61a 3ccf8739 bca89d24 3d5afb11 bc826efc bd249293 bce15486 bcbb178a bca3ebd0 bb87928a 3d16b8d1 3d604d6c 3d6b8708 3c92dfb3 bccf000b bd5fa015 bc65e169 bcc3bdd3 bbf1bfbb 3d299952 3c902e41 3d6fdb27 3d7d49b8 bcd6d4d1 bc4e48f9 3da32517 3d8d819a bb1536d5 3d1d6329 bc0fc84c bced72ce bcf56c87 bacca03b 3cf270a2 bcbbe588 bccf6218 bc0fe023 3c617239 bd0b0011 bd5965c5 bd15835d bd034812 bd30a396 3cfa9530 3c1f71be 3cad088c 3c34fff7 bc2caf34 bcda003c b9dbe766 3c98797e 3caf0459 bd030ef8 3bf22399 3cc1accc bcfa7454 bbb5ec82 bd10ddb2 3d1e7bdb bce166c6 bbad0643 bd0556f4 bc627c52 3c3dc75a bd591065 bd01608e bd46faf1 bd853c8e bd6c8a47 bc199d80 bd3a4a38 3c283b03 bc897c77 bd4b3ca0 3d369dc1 3c84ae81 bbb2f955 3cb10811 3cb052e8 3d1445f8 bc987ae4 bd60762e bd6acbf9 3d489f12 3a244649 bd0fff5c 3d02bc65 3b912820 3c0a9e84 bca15adb 3bbb3c87 bca95e08 bd28e345 37ae0aea bd7a5ccc bcf9aae1 bc2ae6c7 bc65e33e 3d139b73 ba826478 3cfe0365 bcfcba98 bc1de2ab 3d9d06a3 3d58ea71 bcbeb1ef bd086c16 bc84c5cb 3d0c66ae bc2de564 bcbac62f ba6f9d9d bc38c2b3 bc1f0ce4 3d6fac70 3d537471 3d2a391f bc902782 3cc4d573 3cb7860b bd7ad203 bdb5f0c6 be0df78b 3c8ede1b bd871004 bda31070 bcc934c2 3cbe3823 bd498bf1 bd2e570d 3d5ebdda 3d9031d4 3cef8fe2 bc498f34 3b9dbe96 bc869fef bcc6dbc0 3d214d1d bc5e1951 3ca31606 bc915dc8 bda1284d bd13a68f bcb7d800 bda5631a bd503586 bd66df09 bcb4b277 bcc69b54 bb839f06 bd8bd249 bd4bfcd8 bd5f3595 bbb599fb bd3c631f bce5bb5c bdb7d5e8 bd718b13 bcc5ae16 bd20bf1c bd1261e0 bc8ae9ff bd8ed767 bd2e3844 bd841021 bd125d00 bd42db6d bd4c19b3 bd4a255c bd2d4edd bd4f24f3 bcfcf279 bcb96bdf 3a8b1629 3b8c4485 bb53c289 3d9014c4 3c64c51d 3c30d325 bd83754b 3cabc3ca 3b8cd8fb bd65ae6a 3d37a546 3d100247 3ce5e14d bc294a5a 3d078bb6 3d312725 bd283fb2 bc886f48 bbd60173 bd4bdec8 3d287afd 3b6bb759 bd043726 bc77b7fb 3c19b576 bd804b97 b9cfb9a8 3c9d3efb 3d9d30a1 3cd19320 bd503a1e bc9281a6 3d1d7b13 bd13e8a0 bcee85b4 3d2e8696 3d4420a7 bcf2f00d bbb7520c 3cb36643 bc9cff0e 3cbdc1a3 bba4ce60 3c887392 bc92a153 bccf7959 3a3cf31c bc0ee38f 3c989800 bcbec860 bc33fd95 3d474b7b 3ceb409d bd4203f8 bc9bdb17 3d902506 3ce23d7f 3cabdbc9 bb7a5ef6 3c41d1ef 3ca2e5d9 bd0ad026 bcb4abde 3b6b9e5e bd4a6220 bc0317f7 3ccc2ee0 3d6c3ab6 3d3cb357 3ccdf1c7 3d00d6fd bc9372f8 bb77bb6c 3cb7a6f2 bd3167ee bc290dfe bd35bcba bd834498 bd2f19f5 bd261022 3c8af2ac 3c26a48c bbbae1f6 3c711b84 3c4952fa bd114e55 3cf29d33 3c4d9cdf bb9952a7 bca74889 3d166d47 bbbd7c33 bd338bdf bccee4bc bdbfbb1e 3d7ff9a3 bd6d75aa bc98301b 3cd8842f 3c80d4af 3c21e68e bc593db3 3d6a4b17 3db6f99c 3c8e6fc0 bd9ae141 3b9c074b 3d073565 3cfa3a30 3c8e2ebc bc22f291 bc495f38 bbbd2fb1 3d3cd700 3c86ac10 3dae4d1e 3df723b3 3d741f62 bcac1c2b bd57c86f 3d0fd03c bd173a5a bdb0998f 3ca06a44 3d2fa492 bc547d6f 3d363b70 3dd893aa 3dcf78b1 3d7cb3d8 bdbc213b bd5acaaa 3d7dbbf9 3da98644 3cb5a1b8 3c96b517 bc827b48 bc5c7357 3d0431fc 398347e7 3d20fe67 bc45678d bcb00fbe 3d837d8b 3d89fb8d 3b5424f8 b9f17b9c 3db90977 3da02fab 3ce02521 3cf5c6fe bc7661ff bc082219 bd1bc4a1 bcb56667 3cc80dfd bc14764d bbfdcc4e 3c3ec772 bc342e8a bdd134dd bd0e05bd 3c0cd663 3ca1b255 3c8c7032 3c7d7b44 bcc1ec61 bd31e637 3d426ccd 3b34e71f bc0276b9 3cfc2e7c 3d9079b2 3d0edb9c 3c03a091 3af1ac12 3db1fefa 3d59d37e 3b8cc96c bd22bc18 bafac2b3 3adb7a65 bdb795bf 3c56bd04 3d22a821 bcacc819 bd9e5fa3 bc732eb9 3bba9fde babf16f7 3d08abff 3d5d1de5 3d886f4e 3dd0e248 3d5e1483 3cbbd17f 3d237494 baa105b6 3bff9050 3d7c6b50 3b3cb01c bdce58d7 bdc4acad bc9a793c 3d0e1532 bd8a2a5b 3cce49b0 3daaecb9 3ce67557 3d3c500f bcb3ab38 3d398dcb 3c71f6b0 bd54d0e7 bd3261e2 bdbeaaf4 bdc16dce bd85cd69 bcf162b6 3d8f9a9d be07d1d0 bda8fad1 bd0be91f 3d297415 3db02513 bdaa13db bd980158 bd35ba43 3be5f27c bcd106ab 3c34e158 bcfb9dbf bd300cdc bc2d7e0d bca4b299 3e23cb24 3e066d21 3d52a627 3d05b278 3db3db8d bd00fcf3 bc28104f bcfa0aba bcd84f2e bacac9eb 3d65c5cd bc2bad95 bd94141d bd184c8c 3c4ce9b5 bb6acbb0 bda907f1 bc40168a 3d6516e3 3d53be01 bd5cfbcf bd685643 3d1337a5 3ce61e37 3cdf3d58 3ce513d5 3d9d4174 3d47d385 bc814a8d 3c8a45f2 bcb0e018 bd5fdc82 3b01b5a2 bd0a35cb 3a92dd0a bc14696a 3bd47c68 3c9e69a1 bcb6d914 bcae77c4 3d02d120 3ce89fca bb00be91 3d0a5b08 bc08c264 3cc4afbe 3d8b8afb 3d0196c2 bc451e91 bc634c59 3d784509 3d9e9fe6 3c824ea9 bd1305ab bd1c6fd7 bd272e1e bd08c35d 3d113d69 3d0eb341 3cf7fd07 bd23b655 3c1129c2 3d209ebb bd066d1d bcea613f bc808073 bd1277aa bc000916 bd4c1591 bd04bd15 3c80feea 3cc6f0d7 bc8be101 bc6ebaa1 3bf90fd5 3cb2e0a2 bbac3b08 bc51e3a1 3bf5b7f2 bc411127 bb207c25 3d78bd40 3db55394 3cf6672d bc84deb1 3cf64078 3d53d5b1 3c09debf bd4426d5 bd94f496 3d069444 bc3f4dc2 3d0e17e9 3d6d7dc5 3d38f8a6 bd451a1e 3cb5397d 3d66f5c5 3d8daba3 3d0b6947 bbad8c3f 3ce9863f bd0534ce bc309762 bcbd76b0 bd0131ba 3b62ffe0 bb37a170 3a7849f5 3d0f061f bce7b9a5 3d1d10e5 3d33377c 3cda3c53 3b9e0764 3d75ca92 3d0d78a2 3cd06fe9 bd1572fb bdb35252 3d1d9838 bcebe182 bd97c1b9 3caff626 3cefa80e bd4cd0b6 bce1df45 3c918562 3c578222 3d074d1f 3d3d62bb ba31b26b 3cd42562 3dd9964f 3d8fec9d bd2f6cc6 3d47dee1 3dcf4567 3d59ba8a bd2475b8 3d37a89e bd00466c bdc624fe bdba22b5 bd2c6dcb bd9a5943 bdd57899 bd799e72 3ca09110 3d57d3fe bde872a7 bc9d6f47 bb907e83 3c424086 bab20f8e bd0dd6c9 bd36e515 bd5f797a bd0d2e73 bc89126f bdac5ccb bdc40f19 bd9238ae bc84a780 bd4bf929 bcb227ba bb88ec6c bc045cab 3d00d433 3bf26d21 3b964e1b 3c46fe02 bc9a6416 3a8c0cef bd05ceb4 bc248978 3cec8d1b bc890eaf bc8848ea 3c9b3015 bcfb1b45 3c39801e 3d312ef9 3d32bf81 3cb0e2ad 3b31e1c0 3d24333e 3c9078de 3b0dd49b bd115446 3d1dc66f 3c2925b7 bd750c5a bd8df2d3 3c29655b bd372fbc bdd6dd78 bd156928 3b5fc0b8 3d57ae84 bdc0bf57 bd90c2f2 3be91494 bd197fe1 bd8e7c36 bc902e4c 3cadcc8b 3d345f2b 3d0471f6 3c82fb83 3cefc818 3d274709 3d13008c bcca1dff bce24e7f 3d2c50ca bd11383c bcb54e3c bcf6ef9c bbfbf32a 3cd6c132 bc3267e5 3d140062 bca363f7 bce28ed0 3c46509a 3c20003f 3b4f078d bd1b7003 3d120c7c bd5565a2 bd37e9b3 bc38708d bc312943 3be6a7da 3b16de39 3c6f586b bd2731a6 bd3999e0 bcd3934d 3ceb4f80 3d2b91f3 bbb50abf bc902d2e bc38f859 3c2716ba 3cea2cd6 bab6e6aa 3c896cef 3b8ff480 bc84d064 bc04c406 bd2629c5 3c4dbd3d bd401ffb 3ca616ff bdbe8e0d bd04e883 bcef969b bbc45a0b bcd13c73 bd2a42ea b9c2a863 3b6d27c9 3cb52712 3d47dbea 3d4bfe94 bb686243 3d0f382f 3d1a24e0 3d58f88c bc0afeaa 3cf1b399 3c8c1cb9 bcde2a56 bce2fbd3 bd995d4c bd1b4730 3d2d589b 3cb8ecd9 bcea9497 3cf734e9 3d7120f3 3d170e18 3c017131 bcb4bbf9 3d0afd53 bc8d27eb 3d3dc9ad bcfa2e91 3cb06b98 bc0e0c22 bd576519 3cf98be8 bd4f0feb 3d4f384a bc563994 bcbbb0bb bc9ceb91 bbf71f99 bd246b42 bbaebc12 bcef2100 bd832cf6 bd6fab27 3c667c99 bcad5e1e bd1a0ab7 3ced3edf 3d67a8cb 3cf2b7e6 3bb4b189 bc96328b bb327142 3cc6db2b 3d1913ec bc67328d 3d35f639 bce685dc bd80a6a7 3c161b75 bc8a0c9b bab80e46 3d358a7a bc9f2adf b995df4b bcf1f23b bd08b612 3d69bc4e 3d6c947b bc88ee10 bd87d676 3c9ba0bc bcb5c5a1 bc4eac0a bd249c33 bbbf76ff 3c60628f bcbcc4a3 bd041381 3c36bbb3 3c0b4abb 3a571474 3c97a2a9 bcf7a098 391ab787 3c23eaf6 3ccce03b bc8dae63 3cd89b0f bd336938 bd2c9a68 3c1462a1 bd31b5bf 3c3453cc bd9364cd bd23f168 3cc36d5d 3cf0d5da b9d6f014 bcc3a030 bcb39494 bb6783b3 bcd47fb2 bca1de98 bd1581b5 bb5b7c4e bd0a8fc7 bcc9a892 bc9a5573 3c359dc8 3d2eeade 3cfa7570 3d24b90c 3ce26894 bd50ca16 3af656bd 3ca3e94a 3cecd76c 3d03f1c6 bc2b673b bd777cfd bd69f884 bd863dd9 bd7cff9d bd12371c bd946ac4 bd8bde74 bc6aa98d bd21a1ce 3d0ca2c9 3da0b9b5 3c05d13a 3d2e74c5 3d6d19ed 3d7c2e11 3cf1363d 3c2dcbb9 bd04aba1 bc863cea bc656693 bd37d3c7 bd530b04 bb7bcdff bd05d79a bd4b5786 bdac9b4f bd10d847 bbe4a37f bc316646 3c276f31 bcad6059 b9e0f942 bbfc61c4 bd8e7059 3c38dace 3d5a9fe0 3d45807f 3c8c969c bc95baf4 3bd0c3af 3ca7b773 bcd61d91 3c8282f9 3d071189 bccc02ff bca30f19 bcd75150 3d06e4e7 3d1e971e bd6bf3fe bd3e57f8 bd8d74f3 3c1610b6 bbd3d176 bd063cd5 bd36327a bc8761a3 bccb8670 bb510b4d 3ac46ac5 3d1fc91c 3cc8b6e1 3d061078 bcc2f2ed 3d623c1d 3b88ff7c bc27c843 3cfae3b9 3cfbd3d7 bcc62c25 bd1cd4eb 3c9ec72c 3cfcc50b 3c9864be 3c5f7c87 bd81da8d bc7cdd33 3d38a82d 3bb5fabd bc5ebfd5 bc9d8a5f bce7fbd6 bbce4071 bd2e2ad3 3c9726ff 3c89806a 3ccc754a bc1609cb bd1d9737 3d8a3aa1 3cfbd9da 3c0a1c75 3bcdfe7c bc36bd81 bd14e80c bdaa92ce bd645626 bbecb49c bc3a755a bdb497e6 bcb53d61 bc972d1d 3d72c845 bbd0c73b bc37d054 3b6cc037 bc80f404 bbe4de9b bcf4a6f2 3cfaa4f0 3c4e352c bd083024 bd2404f1 3c2614e1 3d334298 39e8f3b5 3cab6991 3d3e21b5 3d719d8f bd6c12dc bd5f4033 3c41b871 3c89eca6 3d3011d8 bccd0b47 3c918d03 bd5c0bd1 3ad0a282 bb869aec 3d1a7413 3cacb599 bd80ce25 bd0d25b0 bc32bd2b b72228e9 bc0b9d03 bda0d981 bdb39d8e bd165ef0 3cf1923c 3c82dc15 bd251671 3b0daede bd4d97d1 3cf09fc9 bd0d007e bcdcdf4a bce48b00 bd9d0ee3 3bff2c7c 3d493ba6 bcddda16 3c87e3bb bd009fb7 3c3e98a3 3ca9acc9 bcab2a9b 3cafef0c 3c96a7ef bd2e13cf bd1ed550 bce22979 3d433959 bd2b1595 bd00e9bd 3cc4de5d bb83732b bc30d35e 3cb8df33 3c62bfcd 3bb86db9 bc85a4b2 bd316ee8 bc1b29c8 bd9cc693 bd57b4e3 bcaa23bc 3b402c15 3c93b89b bca0da59 bd49ea39 bd6e7ba0 bd21ef9e bab64cda 3d3a41e1 bb64987d bc95a43b 3b4441bf bcd8c178 3d88df6d 3d3a1071 3d4f0c36 3d3dcdb4 3c2767b1 bc883994 3cd70ee4 bb1a2c66 3cc2cbf6 3c9af1df 3c75c64a bd06310f bb8ed06f 3c461375 bc9af9c8 bce97ec5 bd853ba4 bc9a3425 bcd7b468 bc886326 3b510665 3c775e34 3d21d7a9 3cc6a105 3cfafaf0 3d9df894 3cc2fc64 3d622ae2 3d40fb08 bced9f34 ba180973 bceb0828 bc30be5c bd0e3481 3c06698a bbc52f14 b7703906 3c378c5d bd1a2345 3c88703d bbb512fa bc851052 3cce127e bcd25ac1 3c8b6525 3d968c8d 3aaa8963 3d21f8b6 bcbe0cc6 bd779399 bbc633e0 bca83319 3cb94b44 3d8c4450 3d49d537 bd55a1ed bcf13b40 bca6e5de ba9d986f 3d3b6fde bd3b4112 bd8ec745 bca369b0 bda95c3b bd865e55 3b385b46 3d049cf1 3d304b1e bd060710 3d2a44b6 3d054a01 3c650f8c 3a833201 3cdbbab3 bc3de3d9 bca65855 bd5a22b9 bd146241 bc9905af 3cb90bf3 bbf22c78 bc026808 3c62f952 bc159b76 bbd06c51 bc43bc6f bd836c23 3b9c01a1 3d286eef bb630430 ba8bd13f bd907860 bd182226 bb02c42b 3ca25754 bbd62355 bd207edc bd487b28 3ace7fd4 bd5c7939 3d844c87 3d3c010a bae9f3a2 3d4ab5b8 3c8d1a74 3c496a77 3ae86d1d bd2ec32f bd9f5937 bd876b9d bdd34f68 bdb3ce83 3d24ef1f 3ca0ba78 3c916528 bdc4a456 bd93475c bd496cd8 bd452bcb bc5bcef8 ba634b30 bd419297 bd946ba6 bd65f9b7 bd1acacc 3d5408a8 3d8387ae 3d906587 3d3e9010 3dc5d84b b9851037 bc822c7a bd38e858 bd12f628 bc9bfcdc 3b9efd40 bd1686e3 bdb39b5c bd56363f bd86d8f8 bbe27b55 3bc763a0 3c50494e bd795764 bc54e715 3cef6a55 bb2bfd4d 3d090de8 3b6d14b9 3c595bac bc86b8ad bd89e857 bd19d533 3cce352e bc3d85cb bd89bedf bd8ef937 bd5c6ca1 3c1f9794 3c9c3935 bcf25301 bd931623 3beed204 bcfa2749 bd56b1f8 3b22675a bd0894e8 3ce8123e bda0f757 bd8a3167 3d1580df 3cc82448 bcfc0055 bd10e63a 3c62fabb 3d5396c2 bcdf682d bcfbcc83 bb609c0b bc0a51f0 bd3d1589 bd38d82e bd1c5709 bcdbbfaf bd426342 3c83d7e8 bd18b2c1 bd95676e bdf18e1b bd4ba454 3d8f15ee 3b4f34b5 3c695ffc bc5f224e 3ccb1bfe 3c1df6e8 3d11fab9 3bfc43d4 3c519ca2 bc875867 bd38e7da bd74485a 3c52d5b4 bccb3e9b 3cd0000c bd60c636 bde6c5f3 bd962e67 3cfc26bb 3e01ef3e be37ecbb bd30dfa2 3e1bb3a3 3d99241d 3d33a4a6 bdb4c56e bd7c9c0c 3d00d707 bb62fd1e 3c42ad51 3d919411 3d929741 3d7100cd 3bbef822 3d0c9dfa 3983c16b 3d14b26a 3d758d4b 3d028e67 3d0418a5 bd23b1bc bc1c30e5 3bf58a4e 3e2983b4 3de2329e bda8f38a bd5a9edd bcf30378 bd09d0a5 bd5f1b64 3c836955 bd97b754 bda029df bd070a81 3b707115 3cd20e8b 3c8a9f57 bcc6fa14 3b16e186 bd4d7f9f 3d657797 3d82fe99 3da50d35 3d72b008 ba4a8045 3c9e45ff bc61a25c 3ca29fbb 3cbb8de7 3d72c63c bd5822d7 bd1ef058 bcaa54bf bd050775 bcc30ebd bd14cd53 bd96e5bc bba9c1be bc15220f bd5901ce 3c3de9fe bc834b55 bcf8dd8e bd886f7a bb11592d 3cfc94d8 bd21a21e bd4c47b3 bd99b2de bd87c70c bcd93998 bc91bc6a 3cd21046 bc4f776c 3ca9527f bcd507b5 bd91b5e0 3c3802d3 bd52c327 bd311e6b 3c826dc3 3ca4db08 bc82dc24 bba0fa3f bc84af96 3bb7384a 3ce47b44 bc86f26d bcdc5290 bd2bc4f5 bd1bd2b0 bcc854ed 3c84d914 bcf703de bb9ff646 bd24254e bd1df300 bbc80cbd 3d38876d 3c0df102 bd159caa bcb9f568 bd2ee661 bd86e72d bd799ca5 bcba0a29 bd501d5c 3c6ef3a2 bcab0828 3d62d272 bd4a9e4e bb769927 bd9ee43a bccd871b bbcd138b 3c030208 b9c28d63 bd0df6ae baa33778 bcb267ce bc3b8243 3d0e51ee 3cab8866 bc8a3e47 bb87eca5 bc3eca88 3c84b8fa 3cbdd232 bcbf098c bdbc8abc 3cd34ec2 bba5c760 bc9dd9ef bc4a8fa3 bd1237ab 3d3addde 3d7672e4 bc843ad0 3c82b660 3c316e12 3cdcd67b bc3f8833 bcc1c1e3 bc914c61 3b238a62 bd8ec99b 3af1fea2 bd2f8392 bd13ced8 bd0a2f26 3c97d07f 3d110ebf bcac70cf bd150e9d bd7860e6 3d9d3e3b 3cc56dd7 3b9f2303 3d190be9 3ceb4461 3d06591f 3d14c17c bb9365fc 3d2eed37 bb33790c 3ca3aafe bd3fdfbf bbaa4782 3c3a3e96 bd9551bb bc923853 bd30e88c bcafe93a bd9f1be0 bda48013 3d067749 bd666983 bc970a03 3ced962a 3c623412 3d08b300 3a6303da 3c8b9955 bd145fec 3c3d9e73 3cb48ebd bcc3663d 3b95456d bcfa0b31 bd827bec 3d838a7e baf195e9 3d080db2 3d119e8b bcd2c1e0 bcf94312 bd004a4d bd41583f b98081ea bcebe64a bc853deb 3cf98ff0 bcf8e5f6 bc597994 bdc39068 3dab2719 3d92b7ac 3d4b3aec 3d412a6e 3c33326c 3d0f0e24 3c788b10 3cbb59ea 3cc30a1c bd03adaf bc9b6c3c bd0f8f2a bcc9568f bd0ebe7d bcfb847c 3b088107 3c85091e bd0f67ad bce0de9a bd9c51af bd75eaed bd9a8dfb bd93c91d bd69732d bca56a0e 3cad742a bcd31d0e bd046b83 bd1367e5 ba0235d2 3d26bd28 3d596ffd 3d282b26 ba8b2a00 3cd3460c 3ba35dc6 3c6f1c5c bcc61d52 bca5b987 bbdf6abd bca1e958 bd546265 3cb05ea8 3ba0e80c 3cf9ea2d 3ccebe48 bcffc4f8 3cd55574 3cf90881 3cf05c06 3cf12c48 3d0eba8c bd3b43e1 bd2b91cf bcbbead5 3bec9ef3 3b830edc bc82da31 3badda94 3b8c8056 3c8171b4 3d01d0e5 3b8866e5 bd05b108 bc90b1f9 bc193783 3ce7d685 3d0314a9 3c081deb bd2cf8c7 bd5d7fca bcfae3ea 3c11f4b1 3d58c650 3d284d2f 3c914afe bc871976 bd1e45d0 bce25171 3d27fa2c 3d85329a 3c04f3c9 3c7f2623 bd87b53b bd989285 3d0e4d7d 3d087b1f 3d2ce0fc 3d5ac29e bc71aea3 bd816edb 3c1591b1 3a1c1a15 3db9d85b 3db4d240 3d619b4e 3d82f35b 3d2e0cc0 bcc2ab41 bd5ab435 bca182fd 3ce25da6 3d71cded bb2ac98a 3d6a81a6 bdba1967 bdcc1995 bca12fb1 3d35c118 3dde2731 bd645b18 bde21e00 bd63c5ef 3a1cacd8 3d500030 bd13ed43 bd6d6a39 bda6a307 3b01abf6 bd8079fb bdd4908a bd6197af 3ac3b1cd 3d2a5670 3d9e1d40 bd45b1fb bd61c11a bd3334bc bd83def7 bd625b7f bcaaf470 3c2b60bd 3d0c686a bc83b81e bd93d50c bc8778db 3d5f2796 3d5250c6 3c8c3863 bc821b9c bd2bd072 3bc53a3d 3d872e39 3dab8e43 3d83d2a6 bd1e5cc7 bd20ca72 bc46e1e5 3c3e2fdb 3d7329d9 3cf520cf bcf7749c bda0e7d6 bd9c9a3c ba5dd75c 3d563a57 3d20478f bbb1c98d bd94d7d7 bccc14f6 bc9626bd 3ca72682 bbba4450 ba45cb36 bd3721bb 3d30436e bc9f926f 3ca3ed10 3d011fba bc80191d 3c24cdea bd2d8d26 bbc6d055 3cd6c49e bb9a48bd bd6f7061 bd35de4b bc96fe7f bc4b9055 3d23ad83 bd3bb9dd bd755316 bd27c245 3c5b1f31 3ba58b08 3d941feb bbedfdbf bd654253 bd4260ee bd06f944 3d87356b 3ce8fa22 3cc232cd bceaf90e bdb08854 bcce5a93 bcd1967e bcc02063 3d20f1d7 bc8b01c9 3b39eb39 bd56db49 bd2cf5a0 bcdb7701 3d9b7a90 3cb87720 bd8fdf12 bd820291 bda13a3f bd047070 3d056b32 3d8a79d3 3d3f7987 bc9e3ff6 bdef3b30 3b5ec8f4 bc86bdf8 3d393389 3cbd3461 3d5872af bd58f0f6 3cdf064d bc0a4f30 3d099d3e bb1c9bb8 bc32e746 bd02b7f2 3b752939 3d0902f8 3d429aa2 3d6a004d bd47c27b bdd22b80 bdc9ac01 bcf7410b 3d1c8bd1 3d1eb88c 3d778134 bc3c3006 bd9bba7d 3d35172b 3d0d28ae 3c9dc366 3d833d35 3d886b5f bd79f13b bb969bff 3cac82ce 3b9958f5 3cf944ef bd785f02 bc51ad6e bd31f8b7 bb2078ea 3c7dc142 3d4cec3a 3aef31bc bd91f009 bda2aaba bd585328 3caaaed3 3d37cae0 3d448c9a bc3e661d bdb41598 3c96968e 3d1b9f43 ba329d91 3bd14ed8 bb867c39 bd180081 bd02eebb bc815d38 3c8d2045 ba894a99 3c8a0e56 3ce7aa3f bc270a1b bcd4e81a bd6228b5 3d018748 3b8ac5e8 bc6bfa8b bd2061c0 bda06134 bc818faa bc58e1db 3cef4471 3b44181b bca45d2a bc21fd8c 3c3c670e 3c3d37a7 3cbb3cfe 3d0ad816 bc4b497c bd3c1585 3c814766 3c64ee4e 3cb4764b bc9faf47 bd8839e5 bd45bad2 bd863fad 3d6f9e82 bd48c8b6 bd084168 bd19aa84 bd102181 bcc688e9 bba0926e 3bd8ad62 bd546895 bd2c3d68 bd038461 3cd402d4 3c5f92b5 3bcbfb92 3d469562 bcb00cfb bd32c0b9 bc79e467 3ca2e826 3d77f374 3b2405b1 bdaef750 bd89c3c9 bde7671c 3b9bd25e 3c3b1f0f bd438b54 bdbae470 be06d2dd bd186a41 bd8b1923 bc296e97 bd574638 bd4ce461 3a57c8d5 bd2e8a4a bcf54e91 3d54e646 3c1e6619 bd8e00dc bd675fe5 3cb84dac 3cfc1ef5 b9fee6bd bd402b2a bd2c609a 3bc24685 3c8addb8 bcaaa210 bd0b9139 bd5327d6 bd89adeb b97a6c53 bd174d4e bb9df9b7 bc2d84b5 bbf9f10a bd3cbaff bd517dc1 bc1b131c 3d21cabb bd148f3d bd2c61e4 bd8a329b bd8dadc8 bd795800 bbc1ffc4 bd04f151 3c93ac98 3d6e1c86 3c7c32b1 bdb2d0b9 bd85e223 3bebe617 3dd35415 3d6794e7 bdc57df6 be023857 bddd01ac 3d18f461 3ce7cd60 3cced105 bbb45e76 bd55c209 bd9bc912 bd8b5a2a bc36673d 3d79d73a 3d0ce6c1 3c98eb66 bd2e971a bc3cf636 3d58839d 3d2eb05e 3ce8a606 3c316693 bb8d1450 3c8cde85 3c9fe853 3d0b4a95 3d585534 3c892db1 3c80458c bd5c43c9 bc3161b9 3d1ebf02 3dce59d6 3da19793 3a790ba8 bda1a68d bd25fb8f 3bf4164d 3b5c42c9 3cdae609 3c3ce50e 3bf11db4 bdacb558 bd2ccbad bc50e0b4 bab33f03 3d88f66b 3c78916d bd1bba24 bd3eef59 bddcf5dd bbcbead5 3d5e4078 3d71ff46 3d88d3f7 bd1e4894 bd89c08f bd388eb1 3d2e394e 3ceeaa4b 3d583d57 3d8949c6 3cb9942d 3d19cb44 3d1551a0 3da3201a 3d916b69 bd7fa2da bd9d1c13 bd1ee430 bd2bc510 3da1285c 3c37f48f bced8461 bde6d852 bd75415d bc30388a 3d59ee48 3d201d2b 3c826959 bd6749db bdbbed3e 3b30252f 3c9a33a7 3d525c7b 3cb6ef05 3c736044 bc24ca6a 3c365b88 3d07398e 3d8615a8 3d93eca5 3c28e9e6 3d164814 3bd36252 bd0c4df6 bce9d018 bc8d305e 3db0bca3 3d014da7 3c4877d2 3cc538ef bd3f6045 bd6cc8ca bd5d11d4 bbeb2de4 3d889d96 3da2c5e7 bc9ce06d bd94de5c bd3e4020 3c599e4e 3d902668 3c166703 bbd57c10 bdaea6ba bdad378a bc034beb bcc5ccf2 bd871f34 3c18ea40 bc4b2be7 bd5a656e bbc2c03a 3d70f172 3cf0bfbf 3d147501 3aadf4b7 bd7b0a40 3d638ddc 3e366f77 3e04f3ad 3dcab88e bd2c62eb bc91a213 3d29007a 3cca4c28 3d789b9c 3d3ab944 3cba2c08 3c92a3bb bd58bc3d bd347982 bd92de97 bdb7813d bd1caca9 bb444ea9 3c24db68 bd74c2f2 bd99acf5 bdec94df bd61836e 3d1b995e 3c19261a bd6ba308 bd9001c8 bddd34db 3d970bb7 3db47505 3cf23f95 3d345c44 3d275836 3a963ec0 bd1d61e0 3cff7b22 3db39ea8 3d8e4bfb bcb08a50 3ca34592 3c95577b bc22dafe bd59f3b5 3d239917 bcbe7c14 bda1f723 bdfc7705 bdab1b43 bcc1904c bd51d0e0 bd309212 bdb85332 bdc8a44a bb1143d5 3c8ccf56 bc9f177a bcfcdbb6 bd77c14b 3d233c7d bd0a5de1 3c7f3bcd 3d1a7434 bc87e351 bdb7596b bda2f75c bddc017b bd5f57ec 3d388c2f 3de06032 bd67a21f be2ee918 be1e2900 bc7d3eb7 3e038c47 3e343b5d 3df39a9a 3ca47696 bd949289 3a4ee829 3c97cc06 3dc06969 3ddbae61 3e02e8ce bdbed63b bd2575ec 3cd56f94 3dc971e5 3e249f5a bda4fc56 3c4fc32a 3d9bc626 3dce8235 3d6a8cf8 be26a7dd bcb8a4c6 3d674726 3e10c80d 3e184f91 bdf88dc7 be63c1f2 bd4ff001 3e470fbd 3dfdb88d 3d26de20 3d999344 3e0f8a32 3d0b772c bd376096 bd0fe147 3db6eda0 3e3897cf 3e5fb6ab 3de20731 bd9dad8c bd4df692 bd3baf11 3cb60477 3cd54527 bde280c7 bdc7b690 3ba84f90 3d88d8c7 3d9c8103 bbf92a56 bda468f9 bd844188 bb8dd0f4 3d8785e8 3dc8539d 3de3ea69 3d15b1b9 bd7ef5f4 bd438da9 3cab4694 3e0d00f8 3e100789 3d61246a 3c801510 bd4b66c2 bcb72d7b 3c2995f2 3ab127e0 3d5daa6a bd496df6 bd6782b4 bd6028a4 bcb774f4 3dac28ac 3c83cdad 3c1d5b0e bdc49fc9 be048f8b bda11f79 3d8bb226 3d93e948 bd2286d7 bd562d81 bd8e59b0 3c8b21a3 3d37ba98 3d2ee657 3c36d316 3b87f732 bccdbeb7 bd5e100e bc4d2fb9 bd2628cf 3d02301c 3d4e9f7f bc8c3847 bdcf7110 bdf144ea bd03a850 3bff88b7 3d08c9ad 3d0d756f bba4eaf9 bdb30195 3c390948 3d124a64 3d01c905 bad73adb bcbbb5e1 bd1fc61e bcbc7f79 3d52732a 3d85b518 bb248ea3 bd96b02f bd7e8993 bd507117 3cbe2995 3d2a3cf0 bda77f98 bd939592 bd8c0f8a bd29b4fd bcb15942 3c847dd9 bd1f4862 bd9eed8f bd973a48 bd5209c1 bc276829 bbddb96a bd38d39e bc2b4a5f 3b042aeb 3d83b2cc 3dbc2b76 3d5cb4cd bc36a299 bd9f6418 3ce0c568 3d02212d 3c562e36 3d277bd0 3d2319b0 3cd9b329 bbcb1017 bcf36b4e bcc6842a bc327a8b 3cbff6d0 bb77c286 bd80a59c bd8a78a6 bdc08293 3d2fd387 3cb230eb bcda032d 3cdff123 bd03110e bcecf71f 3ca0c139 3ba7a5bd bc24f652 3c603cc9 3c8e8355 3c133719 bc9675e8 bd1cdf5c bceb8f9e 3d878d9b 3d493ca9 bd68ac5f bd41210c bce97a6a 3d3d4377 3c98c57f 3c9d2684 3c2fe1af bcbcb63c bd4cb408 3c35c78b 3cf35ee2 3c801e47 3c4bcc6c bd58437a bdc0642f bd6f8b8a 3c44eb9d 3d64e2d8 bd9529c8 bac1b0af 3d4049ca 3cde3397 3b848c95 3b801fec bce3eb52 3cd55e8f 3c4f5710 bd3f4af1 bd655802 3c9f549d bcfcb12e bc1a24df bd5f2020 bd407597 bcbbe979 3c8c8d49 bd0d395a bd12a64c bd7f4035 bd1bd3f5 bc54bf37 3cfe7667 3c4abffa 3d3191a9 bd0ddcc4 bc15f83f bca9ec5a bd2bfa43 3e0a68f5 3d76ddc7 bd227a90 bda6ef13 bd0dfb72 3cb2c674 3c81ae33 3d6767de 3d0247f1 bd4394f3 bc1aa2f9 bc895e90 3c9797c9 3d3d5663 3d8bc146 bcfef7e3 bd23d3da 3bff9494 bc59b8d4 3977718f bd195596 bd19c1f3 bca32b86 3d5e11ff 3cbbd824 bd6df6a9 bdb2c316 bd865bb9 bd5a2bfe 3d0fef39 3cd55b77 3d048d26 bd789422 bde4eece bdd21141 3d5435b5 3d802a29 3d4e8aec bb882b1e bd7d2157 3d27b251 3d2855d2 3d64af89 3da1d118 3bcce0fc bd11adfd bcd51a91 3c675820 3d19da01 3c02d91b bd800729 bc34441f 3d6003e5 3cdd8421 3ca936b2 bc9b448b 3ce3f58f bb72501d bc8d84d2 3cebe71b 3d228c1c 3d02dfb6 3d328c6c bcd4f38a 3af3e04a bbca8a50 3d2c4436 3c891041 3b07a618 bd10e095 bd0a5213 bd2d9cc1 bae686d8 3d126f0a 3d86cb82 3c85d1f5 bd888d4b bc89f9ab 3bf1ff50 3d2f3d03 bd6d66fa bdeb6332 bd12c5b6 3d85d9a5 3da475e9 bd9aadc8 bda06f19 bc6f13ee 3d2c5507 3d35fc83 ba3784ff bcafcb14 3d7df3fc 3d580786 bb2e5393 bb762420 bdc24792 bdaa04f8 bc4c38c3 bb0458c7 bd358e0a bd8d75fa bd84b90b 3cfaf717 bb16bb64 bda4730b bd95717b bd265fb8 bd6fca10 bd39f851 bd3018d1 bccc7828 bd28b10c bc0b3645 3c83922e bcfb1c2b bd1cbd42 bac5d572 3bd84ebe 3bb362ab 3bb2fd49 bdbe2f15 bd4cc283 3c255304 3d6da14b bd51e221 be29452f bd911a80 3c8d8464 3d36c849 bdf42e4a bdc593e6 bc3580cd 3d408027 3dc7b55f bd35054b bda02e79 bd353776 3d3c6762 3c8b0cca bd3636a0 bd658121 ba20dc0b 3c5ccdc2 bd33c333 bc0fbb0c bd5ccae1 bd2bc3b5 3c003444 3d76f6e6 bd229e22 bcbcedde 3d49b340 3cd7c371 bc839a2e bd2ce794 3d3e36db 3c29ab85 3c691ed2 3d0e41cf bca106ff 3c6b5365 3cdf7d35 3c48a20f 39d7ea9d bd1253ea 3cc6064e bb8efb5f bcf6e75b bd6b745d bb97ba1f 3d00254b 3cb6cb45 bcd2e7d5 bd939190 bca76799 3cce2075 3b444a3f 3d380be5 bc036592 bc80159a 3d409057 3d2baf65 3c60518d bd38b211 3c061be9 3d858ef6 3c8c5e9a 3d5017a8 bc2a7ba1 bafc870c 3c26120b 3d40f1ba 3d5b16fd 3d701269 bd34853d bc9c3908 bd52adc3 bcdaa0e5 3c066048 bca4e787 3a9651a3 bc1dc815 bc80cef1 bd205690 3ce52510 3d2227f7 3d174ae1 bc8a7a1f bbdfca71 bd0752f2 bd906794 bd2ac8e0 3d0d2d07 3d802eb4 bc8f39a6 bcbd9f46 bd037e18 3c911a0d 3ceeb150 3c6e6a62 bc9dd8df 3ae0ec45 bd0588be bb9c362f bce5ebf5 bc752b47 3c7ebe9b 3d32c1ba bc148993 3b9a03d2 3bee8ed6 3cd2af4a 3d184af5 3d27e9f0 bbb89c47 bc16ff81 3d15c8b8 3d564add 3d93dac7 3c2ec124 bccbe5e6 bc7142ea 3d671bef 3bf1fa47 3b88def5 3c9b00c8 bcf18976 3cd5c3a1 3cca8663 bd145741 bd633798 3cb802eb 3ce5ce11 3d42cbb7 bca9f7eb 3d098e82 3d3eb695 3d4144a4 3d0100ef 3c88a16c bc4196cb 3d028150 3cffeb62 3d0ac7d4 3c90c847 3bff5724 3c3edc96 3cf43679 bc6aa6e4 bd42e7b5 bd64db67 bd1285ce 3cc2d43a 3d121251 bc7c0ffc bd9e26d9 bd260c7b 3d714ab9 3c2ac968 bd8fe39a bd478ac6 3ce650b4 3c5bd521 3ce58167 3b9703f8 bca7e52c 3c488752 bcb06996 3c48a7f2 3c46fbe9 bbbff841 3d05761a bc58091d bb33127a bd1ae9cf bd5b5db6 bc22e84f 3d5b1841 3d296730 bdb94621 bdaafbd9 3d482aa4 3d59f8fb bc38a4b2 bdc9238c bc5ada2b 3d7a5631 3ce6cf92 bc155b9e bc7d4a0b 3bcd6abe 3c0186e3 3d7d2f09 3c97c326 3ca5f187 3d47126d 3d36bc35 bd38448b 3c913f85 3c1dab84 3d64b894 3c925130 3c9acc7b bce9708a 3cf50788 3cf8f5ce 3c910b9a bd63a7ac bd8de49f 3b98df87 3c282466 bc9452e1 bdcdd0ee be0380b0 3bf1d6c9 3d38f1b3 bbe02976 be006396 bdd48c71 3bd81538 3c1dbfee bd46404d bd6348ad bd7a2e70 bc0e75c2 bb420aaa b7b4200d bd5634df bca791d9 3c1cfc67 3c9f0bd3 bc8d200d bd6ce6b2 bd398534 bd86f2e8 3b30edbe bd837d3f bcd2825d bd039423 bd5b35c6 bd0f4c91 bcb81aec bd85664f bd4906f0 bd3f8e1b ba842b3e bc7064d7 bd273a05 bd3b6e4d 3d27ec01 bc07660e 3d16c561 bd254186 bd53b31d bd3bcdb5 bd2050d8 3caf8513 bd9bb4ef bd06db2f bb9af73e bc72a223 ba8e7873 bd831173 bd809baa 3d8be4b6 3c848f0d 3d890c93 3d84d4c6 3ccb585e 3d58b063 3d3af252 3d270b03 3cc48a0b 3c1d04eb 3cf11d0d bccab566 3c1e8abd ba4eaeeb b9ebad21 bce04030 bd913559 bd13efb7 bd669d7f 3cbb0425 3ce0378f bb9cc0e8 bc88cf88 3cfc7145 bca27c33 bcf8c7ca 3bc77f3f bd17a51d 3d7324d8 3d8d9ebb bd71f932 bbd25bd3 bb397fb1 3c66c524 3c561246 ba41e82c bd8974e4 bc68b1d9 3d3c38ab 3d075b88 3bbbc160 bd711e09 3c873266 3d87dd7f bc31cf8e bd5cfc1f bd247183 3c886160 3d072a6f 3d3b1980 bd224a21 bbd32d3c bc83828d bbf16ed5 bc4f6d86 3b86ee03 bce24d59 3ce511e2 3b7a8e91 bd55ea3f bd0c6efe bc0740e4 bbc0597d 3d7b0688 3d248982 3d4f716b 3c550b68 bc6379e3 3cbb0aeb 3d330359 bd0cfc75 bc19ad38 3c021706 3d1f411e 3c478932 bad98263 bd3b3fc5 38bf2bf9 3ba89f41 3d2d5424 bc4a5d94 bc2491fc 3c722241 bd3923ce bd265fd2 3cb22f7a 3a9f8442 bd399eb8 bd8c3149 bcbc1b44 3bd78145 bcf2f765 bd983e88 bdb8b6f7 3ba899d6 3d0dbe5e bb678975 bd14d584 bdabe347 bd77e056 3d029ee2 bc99da5e bd3b3481 bc0df990 3c5e62ab bd3c3f4b bd887d14 bd567b23 3a0e0f22 3d2e3252 3dba7e82 3d85e1cf bd808590 bde94737 bd7a6bd6 3b2f05df be05f219 be12ee7f be16b9fb bd01bd6c bcc88562 bde926d0 bdbc4f08 bdd12c4e bd5e3d60 bc302f73 bcdedcff 3c381ab7 3d8f8b56 3d0050f7 bd5d8847 bdae3c4d 3d241811 3ca7e2b2 3d25e4cb bc931bea bd8348df bc5a61f1 bc44a927 3d2b3b0f 3c0164ee 3d072766 3d2617c6 3d0152b4 3d44cbdf 3d82c725 bc87d87e 3c851ab0 3ccf385b 3d446de8 bd496c51 bd79a9ba bc4e2d96 3d0defaa 3d698727 3c841c1c bd8f3480 bd98b8a6 3c968007 3af5ef54 bd953bf8 bd7ad2f7 bb256194 3db64f93 3d60b8e4 bd489c31 3cca0d7d 3d4fbc97 3d1d79b1 3d285c92 3c5daa20 3cf2222a bb868bf1 3cb3812f 39a13492 bb2fb769 bc4822e7 3c7b347c 3d1793d1 bd83a47a bbb9bbc3 3d44cd8a 3d17945f bc4928e8 bcb330ea bd0eab53 bd429fc4 bbd0945e bc4a50c3 bd42fbdc 3d4224f3 bcd3888f bd9fe150 bc6c12d9 3c67ace7 bd320200 bddef97f be0dd8d1 3d825db9 3d99c7a5 bd4e53d3 bdcdc5c9 bd96b69c 3c3b5b6e 3ddf6618 ba472326 bdcc58bb be0338c1 3b81f7d6 bcd0c309 3d2a3032 bd950a99 bdb090b6 bdc3b3ca be597a47 bddee0e1 bdf27337 bd9206f3 bdbb289f bdbeb501 bdcf5d2c bda295bf 3c77dbab 3ded756d bd0f96f9 bd4e4e91 bdd432be 3d95a936 3e060869 3a9727b4 3ca2e6c7 3d6277cb 3d1f4746 3e048108 bc99d851 3c0a4299 3cbe7e65 3d81e5e2 bdad00fe bdf7e6a0 bd2fd0af bc80d6f7 bc70e21a bdd82548 bd9ce4f4 3cc2a99c bd1c8363 bc8dfb51 3d057b8b ba6ad220 3d82097d 3d3c7d16 3d1bf3e1 3d385b13 3d2174e6 3cfe094e 3cbf4b3f bd39b182 3d4cce24 3c11dfe0 bc5d7c6e bd274e53 3c9b3b8f 3c3454c4 3d8e6689 bcf09e5b bc6bd495 3cca91ea 3ce363a2 3d5a745d bbf6e1c0 bdce16ee 3b5da78c 3d1223b7 3d36a526 badef9eb 3c95e8ca 3d354fb4 3d59a019 3ce32e80 bd3b19a5 3c761867 bb94b38d 3d884d86 3d63c0b0 bd3a70bc bc486e12 3cd41c23 3d448af7 3ca1bf34 3c4e5b11 3ce797c5 3d25cc3e 3cce8186 3cbf56a5 bd2228b7 bbe35a15 3d5eae6d 3d668b74 3d841474 bb88f00e 3d0c6830 3c189b24 bc2577dc bce9f7c2 bb16d88e ba9290b1 bc19f1ad bd1be090 bd6febb4 3cac7844 3d1ef083 3d155c25 bd2fc52c 3b08932d 3d7cf4cd 3d80c130 3cb0b49b b90c6c48 bc80aa36 bc20ed1e bd10c9b2 3d32ea4b 3d4ecc83 3c1e8e10 3ae4ee00 baf0e4b0 3d208383 3d0b254e bc6ba5b5 3c1adbec bd4c7c8d bd6d906b 3c27c4c6 bc8cc5fa bd55938d bc5de165 3cb209f9 3b72d3b7 bcf26913 3cb912d6 3d45dfef 3d394471 3d26c613 bd45c0ed 3cea0b30 3ce62d98 bb8eaf94 bcf33928 bd42fee4 bb54fe5e 3c7684c7 bbb0396d bd812789 bd636ff3 bcbc5c90 3d17e1f1 bc73479f bd202e1c bd3e5a25 bcc52dff bdb766dd bd72a3f3 bcc77ad6 bd052aa1 3cb03781 3b5184ec bd6ed272 bda183d4 bd97dfc4 baf88d2d bc49b6cc bd62df73 bdd7c156 bce3cd26 bcd1ad3d bda10aed bdf134a4 bdee74fd bd64bef9 3c7b427f bd59a42b bd6ecd4f bdab345c bdf02a84 bd166b80 bd985f29 bdac06ec bb2721a0 3d44aba4 bda6ea94 bd5c74c3 bd240d19 3cef7151 3ccdb187 bd0f770a bcb4da67 bc53cd4c 3cfaba7e 3d39f525 bcdaf912 bd784dac 3b2ed443 bb8b483a 3c8475d4 bd1c6d03 bd1c3c8c bb889771 bca172f8 bd1870b0 ba57737f bbe2cd90 bd2cee6c bcb4dfdd bd1a3688 3c8d6d61 3ca896b6 baba2a42 bdc4fffd bd8dd3b0 3d049cc5 bd7ee3b4 bddc8691 bda2e393 bd20b048 bc1ae2ed bd618550 bd722f65 bd836405 bd5a5dd2 bb31df91 bd8b0298 bdda7de1 bd8eb4e8 bd5567aa bc9919de bd0ec692 3aa6d702 3cb699ad bcbb26c9 bc0e7f98 3cb55728 bbd8699e 3d2d6a55 bd458d32 3bd0a6f4 3c086f91 bc11a844 3d5c6e97 3c73f392 bb54075a 3d07bb10 3cdcd9db 3d7a2e98 3aba50a4 bcf5aa16 3c5d5b8b 3c2d2050 3c32f454 bd19ce7b 3c6a1607 bc18be4c 389a6b6d bd6e063b bd98357e bc1e9ac3 3ab5ea31 bd97c025 bd324110 3d79b4e5 bb559923 bd364801 bda54c3f 3d9489b5 3d966bce bd54da3a bc9db631 3decd678 3de2935a bcea613d bcbcc285 3dd75b50 3ddbf221 bd24c11e bd804af6 b9f0cf86 3ca63dc7 3b161b87 bb8233f6 3d1049c3 bd61952a bd29e779 bcdf149a bc3abf3c bd2c2d48 bc5dcc0b bd87b350 bc563d9f bdd9181d bd2a8fef 3ca6115e bd4ae836 bd6cabb2 bd6f8569 3a3fde9f 3c651a63 bdd1b44a bd197a9e 3d88b39a 3c1a950d 3c7cbc13 bca6137f bd5bb41b bda336bb bd98d4e0 3afd0052 3ce2d989 3ce47315 bddabdc0 bd3b9179 3d60249b 3d2b1bdb bdb33941 3b355c61 bb39d398 3d983352 bd1b8470 3da0b13c 3df64011 bca2c6f8 bd314242 3d279bbd 3db6c170 bc13739b bd29d446 bd4d41ac bdaa887d bdc36d5b 3c5d71b4 bd4f9f8d bd4075cb bd8b8f3e bd1c79b2 bd2c952f bd897a83 3d369a32 bd3be13c bdd973bd bd939aa7 bce621bd 3d4b87c2 bdb5bff7 bd72c4d2 3c94fe50 3da1228d bc854be0 bd98fb3f bb7f609f 3d8657f6 3bee75f0 3d270b09 3c9feb0b bd11e02e bbb7dab8 bd6e3bc5 bd38a9ac 3c2e3805 bc30eb7c bd88d10b 3d02b16e 3ca6ca24 bd217fa4 bd9bb791 3d363ee0 3d54a0fc bc9cf7b5 bd4fea87 3d22094c 3dd06794 3d2dd32a bd8fd107 3d28baaf 3de76fd0 3d1a5f42 bd3d5cf6 3b8429b2 bb7f2a2a bc27675b bd13457a bda1f5cc 3b3bfc5e bb9273f1 3c6528dd 3cbf5d62 3c85bc38 bc00ed7c 3c70014f bc88d9f6 3bedc3b3 3d27d7eb bd7e798c bd7bcb4b 3cf201cb 3c404008 3c8a7f9c bd06b506 bd097b75 bacbd743 bd351627 bd915f28 3bfd16a6 3d9226ad 3d991f02 3d4e9bdc bcb9ab1c 3c10118d 3d560edc 3d155cbb 3cfc6fb3 3d22858c 3c707174 bd447771 bc280a90 3d5d653c 3d452d42 bd6209b3 bd696b57 3d4e3105 3c358ea8 bcca3441 bd2bff29 3cafbc24 3d55a552 3a986414 bd823b2e bbd23aaa 3d69f69e 3daa5c35 3d7752c9 bd09bc7c 3cb77b1e bb0b9672 3bf434c7 bd06b078 bc307c81 bd3d640c bd76354a 3c4b689f 3ce1ca9d 3d7bf945 bd028d98 bd2363f9 3d14cebd 3d8b1f33 3d2e1bed bcc829bb 3d360e26 3d905334 3cd90093 bd5387ef 3c45a6eb 3c881028 3d245da5 3c25f133 bbcb7853 bd3c4417 3cf07198 bbc59142 3cb3c6be 3cc427b2 ba9bd811 bd4e4adc 3afab659 bae2eda6 3c7a3edf 3bd48d13 bd9361f2 bd0a5288 3cec6105 3adbf72d bc33ab75 3ca34d04 3cd69726 3d72455d bd7f38ae bcdca07c bd7a6724 bd14efa7 3b0738dc bd94816c bd210906 3bd75458 bd6e505f bd1767d0 bcb4384f bcfc80e5 bc4bf904 bd9b9562 bd58dc29 3d9ae689 bbab129f bdb7d556 bd2e48d5 3ddd29cc 3dc15d83 bd5ed1c3 bd22cd38 3dda34f4 3da46e1f bc04aa7a bd3ebf7a bdd3e4c0 bcc46cf0 bcb1232b bd41e7f4 3c560cc1 bd27ea7e bd8509c8 bca25a5b 3d08b73e bbbf2ff2 bcead749 bdba7f84 bccb60f3 3d751cd1 3ab51c6f bd2cfce1 bba31cb0 3d807f49 bbbbf6cb bd036626 3c8e0391 3dca03ea bcc84532 bd35f29a 3d1511f2 bd03b820 be063f44 bdc6a446 3d30a229 3a661d41 bc8c1391 bcfc41a8 3d9b4d1d 3dadd05f bdf2cbfe bd044e68 3da53eff 3db9f7f2 bde8a28b 3bf909f6 3d7adb62 3d6acee2 bd8e423e 3c352951 3d90c77f bc86d7d4 bda276b0 bd9f2526 3c2c3a4b bd41b5c2 bcc5f6e9 bcb13ab2 bc93ffec bdca1e26 bc9f6342 3bd95c16 3ba0f01a bc8f6ce0 bd6b03fc bcae79df bbe9a83f bd0eadf0 bd41105f bd77f953 3c4daf95 bd160494 bc6de7f7 bd5e9fe4 bcb6f521 bca6d6c2 bc22531b bcc592f4 3c4f33fc 3d0531a5 bcbdae0b bc5ce3f2 ba718026 bd432332 3cc57c90 3d3efdd3 3c2717e2 bd21623f 3d04215d 3d84a9e4 3bd6d3fd bd46129e 3d0222cb 3bb5a3d3 bcf58a8c bd26e04e bc4f936c b8f1c194 bdfe9742 3c1fdcdb 3d25a8e8 bc5de150 bdb02654 bdc511cd bc01d13e 3b54b3b0 3dac04ab 3d88ee58 3db7514b bd3f5e9b 3cba9c7b 3d486c15 3cd391fa 3d188e90 bc578bfa bd4a1b6a 3cfa886f 3cd33d6e bd0611f7 bd89a513 bd01b9d1 bd0f5c95 bd2a2300 bcd09eee 3d7247ec bc06dcc9 bd34f9d2 bc57e22f 3d608e3b 3bcbf8a6 bd16c6eb bd56c7d7 3c0c2c55 3c794876 3cf9b44f bd4d4c14 bcf86798 3c9df300 bd147614 bc322a0d 3c9630c3 bc150c71 bd896796 bc16560e 3d2cb014 3c0eebbb bd5e8398 3c7b2e09 3d29cd81 3cb2f5d0 bcdae4d6 3c1909d0 3d83134a bb036699 bc1595a7 3c3537f2 bc8c869b 3c084741 bca610ce 3c8a7da7 bd582380 bd42e0ff 3cf97716 3ce7a969 bbf5b8b6 bc85c56e bd1bbcf4 3d2f92f7 bca8a23a bd4a0453 37abae71 3d438525 bd29c914 bd476e1b bd0e27fb 3cd2138c 3cc9f2b0 bd7fb2da bcb12fb3 bdb06279 3d8e311a 3d46a9b3 3d812855 3d93ad96 bcd557a3 3d2b927e 3c8f2339 3dfa1e1f 3d8b62db bd54c286 3c6d617b 3db214cd 3d3e5b19 bd927aab 3b3933ab 3bbb1786 bcba142b bd180bef 3d34b0cd 3d98fa1b bdae2d86 bd55928d 3d132f61 3d7c3cee bcb040aa 3d8900e3 3e04d07d 3ddbb6ef 3ddb1830 3d0c358c 3d96a19d 3dc2d242 3df7f3a0 3e016588 bdb26ff0 3da11a28 3e047e15 3d33835e bda50edd bcfa857c 3a1ec310 bcba23d5 bd9f6ae4 bd20f433 bd28eca3 bd922a7f bdc4c7c2 bca134e8 bda17177 bd4c103d bc285aa5 3db980cf 3d99d02a 3d77c4d4 3b4bef50 bcb664ed 3bd2f509 bc3dec61 bc534d10 3d2deb63 bb6ce563 bdc7dc07 bd4926fb 3d28a9fe 3b01a226 bbb64b5c bc0a8d11 3d2cc13c 39734712 be08e01e 3d1df5b9 3d1bd8a4 bc294794 be024a1f bd86afa3 bd7c6784 bd0f4712 3d3a09e0 bd5753a4 bdbd74af bc18f219 3ca6ee72 bd9ea101 bdbd9caf 3d5f1545 3b90fb37 bdc9ef74 bd60e396 3da9e6f4 3e11fa1b bd3f66d0 bdeac60d 3d9b214f 3dfcdcff 3d384327 bc00b2f4 3e0aa771 3dbab565 3c9aa7e2 bdd792b7 bbe7cb4c 3dc73d49 3d5d6f75 3e01a49b 3e04d354 bd12235c bdb4bfc3 bbd10996 3ceddb9e 3b68c655 bc8bcf03 3d1f8d9b 3cb4f53f bda3eb84 be303bde 3d43608f 3d9a0896 bddfd152 bdf0422e bd8dd999 3bdbb05f be150b3b be602209 bd7fbf8f bc4129b9 bca97d69 3ca6d30e 3d3b6da8 3ccccb29 3aac5b05 3cea1f6e bd97daeb bd8f2ce0 bd39bfee bd9d85b3 3db72e34 bda94680 be26d937 be1ca248 be239a77 bd0eef20 bdb20984 bdc88666 be125bfc be0da6e2 bd0664fa b96947b7 bccb6d46 bd04eda4 bd41e269 3cebec4e 3d987405 3d89d691 3dc26836 3dee188a 3d242254 3ca9541d 3da3f475 3dffed53 3d9824c6 3cad2746 3d431d50 3c80b2e9 bc418594 bdd0de20 3d4586d1 3d4377d4 bcb2fdbb bdb2fd01 bd83938f 3d95c159 bd007ec7 bd9a72f3 bc4a82e3 bd0a29ab 3c78655e 3d9fa38a 3d8e02f0 bc4ba112 bd7a51bf 3d39f5ae bb65f8d3 bcf6d337 3cc02bb4 3d95dfbd bd8bfdb9 3c4b0311 3d182435 3d164d31 3d09ccae bd2eff9c bcee1440 bc961d6b 3d723a61 3d851d80 bd44a265 bca5fc32 3cdf17a2 3d34628c bbe74130 bd7fbca4 bd249977 3b9cbdeb bd06daf6 bc669d44 3a23b9d4 bd50b402 bda488fd bbc7e283 3d637540 bc236d95 bda5463b bc7b6c29 3c93d89c 3c6c21a9 bd90e6cc bc322045 bc419762 3d2c3816 bd200f69 3d38b155 3cc8bc67 bcbe8d09 bc98d5c1 bdba86d9 3ceadbcf 3c6cfca6 bd153723 bb6f920d 3cb2d589 3c62a484 bd7968d7 3cdba2d5 3dbdfe9f 3d9f7918 bd91c6a0 3dab7ffe 3e07d38f bb9bcbb0 bce6f075 3d6ff876 3dbfd69a bdb024b3 bdc5cc9e bc26063f 3d2742b1 bda142f9 bd4f9046 bbd40238 bcdec6f3 bcbeff62 bc75754a 3be76973 3bd0bd44 bc2ce9b1 bcd06fa8 bc24f726 bd472135 bd11fe42 3d0331a2 bce89a05 bdb67c6e 3ad3b3cd 3db3cfd2 3dc9eafe bd428e83 bca85a99 3da1b3c6 3dc712f1 bde054d4 bcd634a0 3dceeee1 3cc81264 bda22826 bda440a6 3c49594d 3d8f3d6c 3dbc8a62 3d44cec8 bd41a8f5 3d11caa4 bb3de3df bd83c0a7 bc8a0306 3d95b185 bcbc5d70 bd67d030 3d013fdf 3d918e80 bd03f77b bbedb7a7 3d6b2bbe 3d9d4b04 bcfb9c68 be279708 bc74e2c2 3d651d87 3ba2e57d bdcc8bc2 bd8c400c bc984d85 bd600cff bd002ba3 bd3f4c8e bda29ceb bd070ca8 bc62e130 bd895c68 bdb110cb bdcf6c8f 3ccb4024 bc2448ed bde01ea5 bd6fa8d7 bcd6044a 3d102558 be0538bd bd6166c8 3c65fd2a 3d48c150 bd4980f0 bd7544c4 3cc2fd46 3d8a60d0 3cacea77 bc67825a 3c4e0958 bb0603ba bbcb30f3 3b041f05 3d864abd 3c9a29ca bd49ca9e 3d8f1aa4 3dc06590 3c74ffb4 bd123fb5 3dcc6f78 3dd2d8f5 bcc57751 bc471031 3cfee14e 3e097140 bc4d1337 bded48d9 3d95581f 3dcd3e5e bdb26ba3 be17fe79 bd8bb465 3aa16ce6 38e1cafa bcace977 bc07b9a8 3d2518ed 38816355 bd836d58 3b23c095 3d7d196c 3d55a843 bd0d8dc0 ba877ca8 3da30b13 3be787b6 3bec6d19 bcdc6b71 3d5e491d 3cb37f3f 3c02dcbc bcd1d2e0 3d6f3dfc 3c395f07 bc3e368b bc8993bc bcb769c0 3cdfcbf0 3d617b3a 3b5a39c3 3d3b41ef bcd906ad 3c9797bf bab033ae 3d360734 bc941dfb bc1b1194 bcdf6782 bd35e770 bcc68b3b bd350ea9 3d14d48f 3c62b524 bc972637 bcee76fe bbc4bd9c bcdcd816 3d067978 bb8fd12d bb6f69b2 3c7bc6b6 3ba89577 bc6e169f bcd16c96 3b6d756e 3d0ba505 3d608060 3b8c3a06 3cbf78c2 3d5259ee 3d79f087 3ce227d4 bd31c34c bcbc28b4 bc23913e 3d16a205 3d437829 3d78baeb bd0ece01 bdb6f507 bd0862bd 3cd57b9d 3dbcdfab 3d3299a1 bb86c43a bda2cfd4 3c8a80b9 bc9c8c8e 3d0d0218 bbcdf4f7 bcd798ee bc8a57a0 3cabba7b 3cc34121 bb2cb9a3 bc2a3946 3cb5362f bcc39e7c bcb0e107 bbb87a4c bd2151a6 3d13e29c 3c850162 3ce0f1ee 3c93761e 3bbed26e bcfcc331 3d1b1dfc bd1c4696 3cd9edf3 3d48d7ea 3c120614 3a9e759f bd231cca ba3f36e4 3dbb0261 3c9d89bd bbb6219c 3ad17d1d 3d4cb024 3c694aa7 3bc4e5da bc64e235 bd7ca5a2 bd27051f bd13013c 3d33cd6d 3cea1e74 bc8ce951 bd61eef6 bd190ae4 3cd3fc35 3d4e752b 3d9955c5 bd85218e bde09dff bd46cb25 3d4f6de9 3d0ff8ff 3d6bbe58 bca2a15f 3c8c966b 3cd2eebe 3b277483 bc9bea1a 3a9a2eda 3d24d84c bcc8d0c5 bd1c9a13 bd318bcf bd2521ac 3c89b506 bca759f2 bcef2bb6 bd80931b bd1f917a bc3b5714 bb784385 bb017ebe bd9e3741 bcfd01e4 3c317eaa bd68e73d 3c52b9e8 3d52c115 3c2d63a8 bb239642 3d12b92d bc9a586c 3b11d444 3cf6ff41 3b0fbe2d 3ca11157 bcd99738 bc5ee0b8 3b934681 bba2be86 bcc5101e bc447d3a bd24835b 3cb119df bc4862db bc8e035a bd4afa29 bcd95243 3ced802b 3b51b00f 3d8a916a 3bf72c34 3b86fd05 bcf86ca6 3c89674c 3d43c29f 3d22f059 bca4e4ad 3c1331b8 bca8209d bcdff567 3c90de1b bcf51ddb bc4e798c 3c91e668 bd890971 bdc47f8a bda9a7ef bd22d3e6 3d5d6c71 3da1a34c 3c226b1e bd4a051d bc7e6f6d bb83bff8 3d4f3550 bcdedbf3 391e15b7 bcee022f bc9786d4 3c79cb8e 3d2e9300 bca6aa89 bbe7266e 3bffe41a 3ca53ab3 3c596ffa 3c61fddb bc6cf0b4 bcb54cbe bcb3c1a3 bd472dea bccbb157 bd369613 3b589310 3d63b5e1 bca77554 bd1b1203 bd5c9bf3 bcb3e362 3d3cefcf 3c1ad40a 3bd86455 3d0d990a 3c0cc7b4 3b9b9581 3cf1b349 3cd749b6 3cb47aea 3ce495ea bc73c0ea 3bd5b974 3c510e6d 3cb22193 3cb73012 bd56d21d bdabddf4 bd8db6e6 bd3418c4 3d3ca996 3d0f798e bd06afdd bd66b2e3 bcef495e 3d07157a bcca31f0 3d0055bd 3d7e22cc 3ce2e173 3bd5a1be bad291fc 3cfb5b68 3c92a059 3cb9e328 3d255fd8 bca08232 badd180d bc3f7274 bd7095ca bc0ccbb5 bcc06fcd bcbb731f bdb687b6 bdc270b4 bcd71662 3d2d0b5e 3c8cbcc6 bcb32347 bc87e6ee bd251ee2 bae0b5ff 3d28c63a 3c33d8f3 3da6ab49 3d1678da 3ab42096 bbe1f4ba 3c935fac 3d4f79c0 3d49b182 bd189262 bcc44d1d 3c3391ad 3c629038 3d60e034 bcfbb55d bc6f1e8d bd5247ad 3cd66c9c 3d871d90 bba8b2d3 bda01075 bd8a8ebc bc8f41c6 3da4d21b bd861bbd bda9c7e5 3bca9a8f 3bd9399f bd1ac462 3c279da7 bc3928f5 3d2a2a39 b801ba13 bd4faaa8 bd60b500 bd16cb77 bca04280 3d889348 bd40ff68 bd36a0c5 bdc84c0e bd85ef61 3d7a602b 399701cc 3d30175f bd424dc4 3c986209 3d5dbfcd 3d8fedfe bcd61a66 bd6d07bb bd893ae4 bbc60510 bc7096a2 3d12a00b 3c402d16 3cd121fe 3b5d9219 bcc3f035 bbebe52c 3ccfb2df 3c975b6b bcde7468 bd189c79 bcbea269 3d234e1e 3b33e8fc bc966b42 bdb9effb 3ca5ea0c bb9019e3 3d75551e 3d013297 bd8dcae4 bbcc4fb9 3cb23666 3d88a111 3bb336c8 bd2680f1 3c5ad607 bc65005c 3c1bd76e 3d3f352c 399fbd25 bb349c80 3c26e758 3c8dfad4 3d331066 3bd0200f bda9b014 bd4bec10 bc62d604 3d805212 3d777bdb bd1733a9 bce2a8a5 bd6b1b06 3d86a593 3d8cbd61 bc50e824 bc38996b 3c4899df 3d4d2e99 bd03b34e 3d5b02cc 3d3da5ab bc51482f bd1f6c75 3b50ebbb bbf0d099 3c456ddc 3cb491e0 39fa1248 bcad5aed 3b6b1a15 bd4f3224 bccd1863 bce03366 3bd3a174 3d4bd681 bc069ff3 bd92b1ed bdb3be5e bbe578cb 3d0c795e 3d731a0a bbb394db bc06566d 3cea1246 bb6fd526 3cfaf2f6 bcb69acf 3c19c030 3c29bf6d bd4b51d4 bda5b675 bd898b96 bcabf727 3cf7d84e 3d059292 bd285f64 bd9eeb6e bd83f8ad 3cdf6555 3dbe4c60 3dc8750c bc890bb1 bd855c14 3b55ff12 3d031343 bcbbe79e 3cf5d2d4 3cdf15be 3d3df32b bd408466 3c5d268c baf9f176 bba901b6 3b8788cb bcdca832 bd80fb9f bdc2768f 3c2f2f63 3d854218 3d045d11 3b5cd70c bd3d3bff bcccc540 3c6ac989 3d5a1670 3a83aed8 bc7c80af bc92181c 3ca3113f bb4d61a7 3d0b94ad 3d10b80d bc9652ca bdb189a4 3d85076e 3d992d8c bcde0f31 bd508cae bdb053cf 3d30164d bb4afc7f 3d24b501 bd1fa085 bd5cc03f bd387121 3c6d93c7 3c74dc19 bd1c6ca1 bbe0a286 bd74b33c bc658069 bc90abec bb8c8a06 3bfa5af1 bcc45b05 3d59662d bbec51d2 bdc22ca0 bd8f0cd6 3dafef89 3d554439 3c6875fe bd9b8e1b bd010474 3d3fe50a 3c3e10d4 3c93bdf8 bd18cfca bd5317b0 3c74749c bcd47fe4 bc85764e 3c5e2100 3c902227 bd42bae7 bd8b2822 bce37d86 3d0d395b 3dc19159 3ce28437 3ca16edc bcee83ab bc5210a4 3c5156ba 3be47913 3aa503ec bb84fe76 bcb89722 bcbdbaad bcc693e3 bda80bd3 bc650b1c bd691b9c 3c3ec907 3b8a3c51 3c1c29c2 bdb73d5a bd85ce58 3cacb248 3c9df251 3d80d92e bd2a7757 bd8ca196 3cf12d79 3c186ea6 3d50fd2d 3cb77322 bc9f3d6b 3b0b3029 bcd9bda0 3b8703ee bd93a492 bc46a12d bc9551e5 bd877697 bd76bcce bd9b86c5 bd7ccaad bd8ebb5d 3c833546 bd725bc8 bd8f3d2e bdb3a97d bd313c9f 3d34b4f9 3d88dba8 bd9366be bd1555d2 3cf5afd8 3ddb29cd bbdcc7ce bd72ca8f bc86537a 3d2cb7a1 bd7c3f4c 3d588706 bd0e64b0 bd0e6044 3cdbd8c1 bdd56cf6 bdae8c6a bd995cfa bdfecd55 3dc4fcc3 3de1aa47 3cfb1aae bd93855e bd1be0b2 3ce260d5 3d467c70 3daf4b91 3b0a2da0 bd992703 bd5b10c1 bd42d6ee bd31cfef 3b395810 bc550337 bd6d9033 3c213feb bd7eff98 3d0ab6f0 3d8ee68c 3c8954d9 3d362258 3c1b2ef2 3ca5ec1d 3e015766 3e0b8e24 bcbf76e2 bd15504a bc9c3169 3dea29f7 3e65aafb 3b7b0730 bd8983e9 bdb54374 3b7ae061 3dbc2804 3ca2d15e bca6f14d 3da96e89 3d157828 3c54c7d3 3d6d71f0 bb82b30a 3d0b1f7d 3be929b5 bd17f28a 3d11a840 3c97bc25 3ce6591e 3d51fd74 3cd50c6f bc8ece51 bca007b2 bc0bf9a1 3cea9986 3df4bee6 3d45f439 bd6ed2cd bd8265d3 3c601347 3d8deb20 3cdf879a bd1a6030 3ce7b976 3d6dbaf7 3d1b1fb4 3d8bd362 3d32ba86 3d2854fd bc828d8a 3c3feeb5 3d2ca211 bba3d810 bd145d8e bc47d124 bb9e8827 bd950e7f bc6deb58 bd0fc6b1 3d0f1932 3d6ec624 bd098c99 bd96e8f0 bd8350d9 bd1872cc 3d6ce0f7 3d15bb00 bbb71eab 3c12ae34 3d09fa78 3d216754 bc8a1154 3d205df4 bc2e6b43 3d46705d bb186852 bd81f053 bd2f385f bd20b9cb 3bee85a1 3da90387 3d12551c bc8c44bf bd81930d bc972471 3d77cffe 3d8d32fa 3d322a45 3a473efc bd4f6722 3d0999cd bbc00cd0 3c629c72 3d1a1173 3cdf4465 3c52f477 3c9f5b60 3d7bec65 3d08e8db 3d59305b 3cb63b7f bc3b3ac4 bd85fee5 3cfa4020 3cf245bb 3d91496a bc2b1cff bbcc1f61 bc459328 3d49aaff 3dfb9a4d bd8fa09c 39c91333 bd7304cf 3d2a7a0e 3de6b591 3d017797 3d4f38e9 3b2b4e80 baaf3588 bcab2766 3cad84a7 bc34df8e bc416db2 3be72884 bd070af5 bd0f8a74 bda9930e bc1dd6bc bbaf92ed bd67c448 bce01fde bd9978f9 bca78aad bca81583 bd06db86 3d6bd344 bb40e9ab bd131544 3b9ee597 3d015945 3d52fdc6 3c1eafb5 bc8a098f bd82a04a bd97b8bd bd46c91e bd3ccc89 bd11bcc3 bd0d8d9f bcd55080 bba4c05a bd4ad6df bcb7624d bdc3b4b8 bdc4b8ed 3cbe254d 3d094d9a bc9cb28f bb882a53 bd938db6 3b979341 3cdde99d 3d28bbaa bd0b9444 bd357faa bcd6f704 bd73758a bd19518d 3d78b259 3d0dccf0 3cfefed3 3c4fe72a bc6cc50e 3cb46c6f 3b90a650 3cf6bbee bc8dd128 bd19e6ca bd4ffcbd 3c912829 3c46d0b3 3d1c2071 bbf34298 bd95b7fe bd622f41 3daf5faf 3acf4112 bc5c206a bd209a8d 3ad286b0 3ca72fa7 bc92b9a3 bd8adb28 bd8aa68b bd534277 bb479905 bc0fe6da bc1027c1 bd333570 bd010eb0 bd224892 3b06d0ba bd41a475 bd8a2aac bd429051 3d6416b3 3d21c36c 3bb6dfdc 3d34ee1e bbd71b9d 3a5b74a0 3d1e3753 3cd2649b 3d4ec12e 3d1b80c0 bc0d6206 bcaca53e 3d47c50e bbfd71d8 bc3add6a 3c34ccfd 3c3f5988 bc353edf 3d4a2b32 3d05d65e bd4018b2 3b04f549 bb92ffe8 3c887800 3d02552a bc97b238 bd490cd5 bd527603 3c81a98d 3d6c5265 3cf0d3a2 bd2420fe bce685d5 bd0f5a5d 3c896105 3c456172 bccc8292 bba1b3af 3d21223d 3bbc1743 bbd08138 bd00bb55 3d4f226f 3d1b0e27 3a669bc1 bd8bc9b8 bc80fa56 3c887197 bc789d1b ba971c35 bcc7a41e 3c76aa05 3c4c5292 3c946aa8 bd46859b 3d90f761 3cc10b70 bc35d348 bcb0f01f bc83ad61 bc7e276e bce54038 3cc25505 3d99786d 3d838363 bd00065f bddf2a5d bc803cfc 3dc5589b 3da3c086 bd8c50f2 bd92d767 3ce47254 3dc65705 3ced7a95 bdf2814b bd4fff75 3d9aac9e bbbad613 bce29022 bc00f52a 3d2ef89e 3d0d3def bbdc1262 bcfaf407 3d6bb63a bd008e5c 3c4b5488 3d194994 3c9418af bca4af44 bb8f2a83 bb9462e4 bc962104 bcba2250 bda1957c 3b9b3511 bcbdb0e1 bded2a85 bd607573 bc8aef5c bcaef78f bd5cf93d bd420944 bd5f16d3 3caa92d0 bcd34179 bd8f623f 3b6c2351 3cee2a1d 3c30d69e bcddbc88 bb706bb1 3db1a9d2 3d975ea6 3d8255e1 bc54a46b baca3204 3d82b82d 3d2e1c4b 3d1780a2 be0680cb 3cf199a0 3d3c58b3 3cc33c5d bdc05a03 bdb68351 3c862a6a 3cc51f49 bd69b5f6 bdc64bb0 bdc550a2 3d07d9d2 bd3f26ed bc9b4187 bcc97950 bd2e3ec7 bca7a27d 3c49336b 3cd8d02a 3cfaf94e bd3ae9ac 3c8497df 3cb41344 3d502a49 bd079196 bd441b2a 3d392a98 3c51c450 3c4a7377 bd562cdf 3bb99f17 3c6ff880 bd1cca2c bc38fc52 3d7dadd9 3d21321f 3d1d3e08 3c976176 3ccf18f9 3d7f73a5 3dab3fd0 3da030cc bb9b2714 bcb87f74 3c2e8c9a 3bd7b325 3b7b85e8 bc7689d0 bd0c9f32 3c868f82 bab8a9ba 3d0b67c8 bd52fe65 bd6fef7d 3c6813fe 3cbbaf8e bcd6722e 3cf2a466 3c76c7ba 3ca94bca bc6a2da2 bccb1a37 bcc5d1ad 3d3ac8cd bc375142 bd5f37c3 bd8c9221 bd17e7b0 3cec0f31 bcc2ca76 bd50a1c2 bd6334d6 bcdbac14 bd3364d7 bcf051a5 bd817150 bcf1b3ea 3a32a215 3d4a0c6d bd65633d bc739c74 3d1ca983 3d5e0584 3d969d37 3ceeeb25 3d838c0b 3d50558f 3d9b499f 3c9e51f0 3ce1c4d7 3c72c1c8 bc4f962a bc2f3a08 bc509023 3ca3ca7d bd574afa bbe3ca09 3d0cb2db 3b1a1bc0 bd523c77 bd624aa6 3bf6269f 3d2246aa 3d04b72b bd2083ce 3d1a6657 3d45f012 3cdbfb91 3cda8d40 3b5ec6c1 3d33240f 3d63ff54 3d11316a bd00301e bb920324 3cf91c5d 3c3b570b 3ae40d08 bb1b8b17 3c29785e bca57853 bd58b2db 3cfa12dc 3c1c879a bccd53a6 bcb57344 3c519179 3ccbf5f2 3cadaa38 3b1b4c4a ba82732b 3d50c63c 3d79a5c7 bbafc807 3cf2b8ae 3d519e0c 3bec9150 3b0a1ee7 bc6bfe96 3d52b013 ba8fe003 bb83714d 3dbca34f 3d2d4ee7 3d217c8d bd87f6dc bc9f668a 3d39641d 3c6e57e0 bd528203 bc22ba17 bc6fa131 3d221ec3 bd1176ac bda04dd7 bb7b57a8 bb64c900 3c6c60e4 bd685629 3cdc091c 3ccc39a8 bcabe27e 3b2fad9e bd1fe0df 3c399030 3aa04a41 3d7c30b3 3d8cebf0 bc1ca574 bbc95a98 bc5231d2 3d72c560 3d3b2e45 3d1d82b7 bde90ec3 bd1e83f3 3c2e8d3c 3d16d63d 3c00e3bc bd28cb04 3d2b6ed6 bc8574aa bd967f20 bd18c270 3c5b84f4 bcf80ead bcdff2cc bd5f574c bcc7a5c5 bda4a4fa 3d1d3c45 3d7f8cc3 3d4a2448 bd3a31f2 3bd0eec6 3d299f4f 3d247aff 3c44b0f4 bdd6bb5e 3da584e3 bccf9126 bcf7d222 bd3f58c4 be138813 3d63ae36 bc622e52 bd50d23b bc25c1dd bde64614 3d124265 bd4cf087 bd31e74e bca1937a bd7dec9d bb8d2bcc 3b273433 bd4083e8 bd481cbe bdb9ec28 bc913e0b 3cbcd265 bd53bdf0 bd96e17e bbedaf6d 3d0eb87a bc953935 3b946d90 bcd1fc31 bd9ffa60 bb6f28a8 bc597f15 bd0343a5 bdb362c1 bd4f3e4f bd142a2e bd23ba2b bd2bc1d4 bc9c44c7 bdd62b26 3cc0ff84 3d76dc80 3da8c73f 3d2c155e bd4e10c5 bd087162 3d24436c 3c81b394 bcbed7c9 bd2a7820 3c2af044 bd19de19 3cc62923 3c9d4119 bd8c5e70 3d379d65 bd8979c8 3b089b9b 3d903647 3d40b396 bd17b451 be050fbb bd0f9138 bd1452c1 3ceb7d89 3c722b80 bbbb571e bd057a13 bc5ff947 3c2f65c4 3d1b6013 bccf6ce1 bd9885f8 bbfcc102 bcac463d 3d1f1deb bdc941fb bcfa32ca 3cb4f4f7 3c460be4 bcb46c51 bd2ecfdf 3ca8765a 3d3384ee 3d9b78bf bd8bc1a8 3d41bb35 3d8bfba6 3c5f2400 bbf820ab 3d11c817 bd3e7fe3 3bfacdbd 3d9182f0 b80c40a8 bcac27d5 bd961776 3bb03c8b 3d6b62d8 3d82b570 bd41704f bc259698 bc971255 bd14bb5d 3d590bdc bd855d36 bcd182a8 3c92c67c 39cd4b4e bd03737f bbd3c11a 3c0aabf9 ba291a94 bcc8545d bcbc01c6 bd0b98e7 bc68d5c1 3c91c6b6 3caf69a9 3d198df0 bc65f294 bd9006ed bd0601c0 3be0f0c5 3d17b15b bceb3973 bd0b6f82 3bd68ed1 3cd60dfe 3d02df0a bcdff487 3cc46caf 3cf81ce2 3d51f466 3d3b5aa2 3cda9cbd 3c34dc7a 3d0feb6b 3c1ddc3e bd3dc0bc 3db4631a 3db53c3c 3c2112a9 bdf32396 bd3202d8 3bfbf6e1 bb27bc75 bd9c5559 bdb3b05b bcc2339f 3c9515a8 bd561adf bd46bef6 bcefacb8 bc386dc6 bd8ee707 bdcad776 bd49b26d 3d000c79 3bd3bc58 bd0b90af 3a406e5a bb941136 3d2a925d 3d217f5a 3d7a8f03 3d14cd8f 3c8d6c37 bdd46460 bde14b1a 3b9d3526 bcb2dc33 bd8d6d89 bdcbb0a2 bdd310e3 bd9c6ce8 bdc208fe bcbbb3f2 bcf2f6d3 bd191bf9 bd5b9f3e bda02f76 3cdb4772 3d83fff1 3dee68f1 bd291252 bb96d66b 3cae5838 3d35dfd8 3d21debe 3cc86819 bcc5898a bd4d6c67 bd45fc5a 3c00d27f bcd4782d bd401071 bd9cfef1 bcc59d6f bc9c3ab1 bcd41f66 bd8a03b4 bd0ac7c3 bc131192 3c5d9143 3c29203e 3bf8f7b2 bbaf9ef2 3d330170 3d7e2c2c 3cf6f4c2 3cb36828 3c4fd3b7 3d04e3f0 bc65d8b0 3c0223b4 bd655fe4 bcaeb9fc 3d4dc82f 3c935c9d 3d0cdfe8 bd97efb9 3d0b4720 3ca5acd2 bd0fb57f bd990f2d bca2f2ce 3db33e18 bc0c5e15 bd92e1c3 bcc0189d 3d94c2ff 3da15924 bc098017 3c4fc74c 3e057241 3d9b3d6f 3ceb81ef 3bf9d9c8 3c2bf200 bc981555 bda82a0b bdea6473 bd0ad7f6 3c5af45f bd124993 bd35460e bdec0992 bcc3c7a3 3db04840 3c6ce902 bc1cf411 bd009947 3d6f500e 3dfab5fc bcf21fea 3d0fbfde 3d8a2995 3e001011 3b3b5054 3cf1ff32 bcaec54f 3d49958f 3dc5c9a4 bb4f556f 3cadf45d bd43b58f 3baaccb8 bc612ef4 bdd6f643 bdd610a0 bdb60063 3ab86181 3dc5b66f 3d80d6a6 bde45eb0 be029989 3d5015b2 3e5ebc67 3dcaee22 bdbd884c be03bcad bd11dabf 3e02dfff 3e101b51 bdc1739f bd876b0c bcc02b7c bdab2fd0 bdc6749f bc8365a6 3d55c0d7 3cac47cf 3cec7ab8 bd9e3fcc bc75ec86 3ca2810f 3c332e68 3d524a0d bc585afb 3c75a283 bc94f656 bd75a745 3dc832e6 3d96a81b ba64e232 bd63c10e bdb3b3a1 3d42fb40 3e098878 be00b939 bdb45be9 bb953a56 3c214c10 3d247e7e bb75f0ba 3c736e50 3cac37bb 3d08cac8 3d7e3af3 bd3ea3ae bd017f4f 3b9dc1ac 3d7907c2 3d0ccbe3 bcc0d139 bdaf1ec7 3c293c04 3da4b316 3d5d3e21 bd744a3c 3bfc4416 3dcd30c7 3d8dc628 3d57dc3a 3c88cf2e 3d4864a4 3d750457 bcb77fd1 bd39f3fc bcfa4e4b bd1aa2f4 3d02a799 3d8f7a6a 3c74b324 bc381c5f 3bd20b69 bbd01267 3d1e7a8a 3c9c5280 bd322b0d 3c6b9b85 3cdc06e8 bc4e0144 3d6a9775 bd0f42de 3d3bf79d 3d37b43d bd322293 bd17a535 3d883e92 3d67c3de bce6c6ec bb98401e bc6ad7e8 bd2c14a4 3d5793a7 3da20f4b bc8c0556 3c55ca30 bd66ccdc 3bed0b94 3d726261 bb879f72 3a2b2c43 bc26bb6e bd632146 3cf9df16 3d87a4ab 3cd6d677 bb19986b bd1c60e1 3d3ba518 3daffde2 3dcb76e6 bd0fe075 bc45eabc 3ceedad3 3c3dc5d7 3d236f34 bb9753b9 bc322b1e 3c94808f bc6cfe53 3c275bc3 bc133f1e bba6b33a 3c8eeccb bd20efbe bd7a8345 bd29a41d 3d28c9a3 3d12bbe7 bbce88dd bd05eae9 3cb186de 3cbd4f2a 3c72a17f 3b9a5b6e bda1a825 3d93f74c 3d653123 3b92fb25 bd089aa5 bd6bbc98 ba95b4e6 bdb66194 bde1be05 bdef2d68 bcf4e5f1 39720a9f bc2b5504 be057881 be0e3f9a bdf0b5b2 3ba41ed8 bcb0f013 bd50cf66 bdf8644a bd81d17c 3d3d499e 3b66ceca bc44fe97 bc3aa699 bd557a32 3de1d219 3d6ba163 bbeda686 bc08e693 bce19b1a 3d10c7a0 3c530d19 bd5df200 3dba1fc8 3d666355 3cd5562e bce7a620 bcb59236 3d81a489 3d4f0ef2 bd26922f bd3dc511 3d2afa58 bcf49b32 bd03280b bddfc02f bd5f6e74 3ce8ddb5 bcabe640 bdaa9eb8 bcf1fb0c bc8d16b9 3b4135ca bc3b1457 bd301858 bd1642b8 bd834be9 bd7dbbe4 bd2348e4 bcb4eafe 3ca052d3 bd12dbba bd073092 bd9ac72c bdb318c3 bc2b9957 bca57327 3c42f96e bd35eee3 bd921076 3cc9675e bc5a2034 bbc9732b 3c0393cf bcb81152 3dc43dbb bb86940b bcb8d493 bb775ae0 3ca5a8db bd33f23e bc23c697 3d62e9a6 bbf4ce00 bacf5ee4 bd697225 bca0484f bcb9ae16 3d11c942 3c828620 3cc486ff 3b286059 3c8f0284 3c5211ed 3d0bbb0f bbbc6958 bcdbf65d 3c167420 3cd96482 3d2af6fc 3d0a521f bc92f308 3d21e5bf bd21f513 bd623d3b bc2bd418 bb888a44 bd619d9c 3c722334 bc04a215 bd54b45d bd90d0c7 baee0ddd 3d898f91 3d1a7e73 3b80c6b8 bccefbcc 3cf6be8d 3d6d5397 3c8d634d bc550046 bcaa1661 3d0b2133 3af8c95d 3d03faa5 bcc5a60c 3cadaf00 3c5453a5 bbfecf00 bd17e4d5 bc56aeb5 bd8740c6 bda01d28 bc0ad305 bbe8031a bc91da38 bc82b347 bda18eb6 3c8528a3 3d68f8cf bce04667 bd8c5379 bd97ad5e 3d022bd2 3d962537 b99a83b5 bd5a8617 bbd19c46 3dd662ca 3d67c36e bdb70d38 bd35b192 3d10136a 3dc5b4c0 3ce34ae7 3b86dbe3 3d4bf59d bd1abdf9 bcbcea0d 3d90a192 bc8f4d79 bcd2af22 bd9bfdbd 3d67e5f2 3d635874 bcc2353f bd9ad0ee bb8f5291 3d4c9dc1 bce34bcf bcf53dc8 bdee06f1 bbf2e224 bd0e7703 bd241d08 bd60b9c2 bd95e55a bdf6516c bd97e5bc bc468acb bb13b9ff bb961769 bafc6efc 3d014d7d 3d7664b0 bd03325f bcd189e3 bd7769ae 3d521d49 3d4d4513 bd123395 bcf3d2d0 bd2a40eb 3d997a02 3ddb9e8b bc8aca72 bdad0ab3 3a8821ae 3d4be286 3d16ff86 bc95368c bd1958b9 3c33e628 3d3c90d5 3d0e1f61 bc9cf460 bd0214c7 bd4b4caf bd3e22b7 3d5e29d3 3bd0e991 3be656d1 bc3d81bc 3d3b8f52 3d12d8e8 bc9f1cec bd5cde2c 3d0b6a99 3daf0722 3d3d0110 bd5c423c 3bf2ce37 3d8744b6 3cfe5709 baec82f5 bc9c567c 3c2d3860 3d2546a8 3d6b8892 3c61d96e 3cb8740c bcae0d00 bcfe525d bcb23a6e bc85191f bd05eacb bd5f81b2 bd3dcadd 3c152936 bcc9ffd6 bd1f4070 bd4fd180 3d3016ab 3d3da534 3c3a3cab bcdd5c39 3c119dc6 3cb9507e 3d2aa469 bd6f0c39 bcae2e13 3d15df80 3d80af71 3c29361f bd3f12e4 bb9c3977 bdc2c03a bda9b542 bdc401eb bd7930e5 3c23bf3c bdc065bc bd8bdc8b bc6a71a0 b8961821 bb9a50a9 bd034235 bcb3fcf1 bcce6895 3c130838 39e9590e bce84095 bd63d2a8 bcf0c0a6 bc85bc02 bcaf32e2 bd367cf8 b8e2812a 3ca2c35f 3d3cb7b5 bce24adc bd4b5608 bd91c7f8 bd016cdb bce2dd27 bb89c3bc bd8307c4 bd5c69cf bc1048d4 3d2fb14b 3b608cbc bcf6db92 bcb43ba3 3d5f250f bc658698 bcf67fae bba2be93 3ce89167 3d500af7 3c99cf1a bd0341d7 bc488574 3d2e5e96 3a63a31d 3cd96e5d bd79054e bd24c5e1 bd2c4e98 bd141e22 3c14e627 bd47055e bb97993a bd773e04 3d04bd3e 3d900e17 bbb4b83b bb8e4f76 3c766eac 3c96fd2a 3c3083de bd06c055 bcc46818 3d65c299 3d9ba159 3d6fc80b bbc044ea 3c87c316 3d4e5701 3d76de9d 3cec664a bc95ba9c bba3f66e bd0ec44e bbdabdbb 3bfdd66f bd17e8ea bd53866b bce22f05 3aaee254 3d981203 bd1f245e bd3d4557 bcb0dd36 3d9f0324 3d60baa1 bd38086c bd5f9830 3c866a01 3dbcb70f 3d0b6c79 bd4e7a3c bcbff39f 3c318012 3d0d421f 3d13ca9f bc90d8a3 3b3cef5e bd38c8cf 3d17c1e1 3d33f24c 3c345dc8 bd9c92f1 3a68f0bc 3d5bee22 3cfcc1e3 bd37c098 bd475dec 3da03bd4 3d9662d1 bc85f8df bd5811e9 b983aa98 3d736f2d 3d044b46 bd858d7a bd2425f5 3d02ce77 3c940daf 3cf9ce45 bda89ddf bc82b6ed bd1e53b1 3d1513d0 3e03da73 3c5602b0 bbf3d734 3d091dd3 3d79314e 3da386d5 bc35be7e 3ca17ced 3c21a7ba 3ce4e392 3a81aa41 bd449838 3d4f6148 3d93e474 3c903c06 bdc4bd7d be18eec3 3d954bfc 3d02f5d9 bd0586b9 be011d8a be2b56c5 3ba9a0a4 3c81bc59 3cbc3b58 bc97b0a2 bd501625 3d16e661 3cbd56ae bd163036 bcd22de8 bd8585eb 3b1fd12b 3c1c18c6 bd6d6fa8 bd9daaf0 bbbe5ab0 bc8cbcab bbb9e61b bd42eea6 bd722c00 3c061a0e bd58164f bd1bece1 bd52f1da bda09eef bd21c5a4 bd070b1c bc4c8cc5 3c0ce929 39351abb bd280620 bd0e7506 bd53c525 b89ce440 bcac22db bd40ea26 bd7ea604 bc4b6872 3d0618e0 bd82e40b bcb02b89 3d02b833 3d33b4d3 ba8f4a44 bda3c5e7 bdb6c055 bcb21d48 bb8e87ab 3cd028ed bd0b9057 bda35b69 bcdc174a bcd82b46 bd28e1e7 bcfe5c08 bd5a0a90 3a9e4e69 bcc4e862 bde00609 bd85c8c6 3b0b490e bcfc9fd1 bd409a55 bd55b76b 384bee6a bc32f92b bbdb8598 bdb60c49 bda8045e 3d0b7bd8 3d8a149f bd6924d2 bd3b05be 3b9438b5 3b208567 3afec57f bd3de843 bd0360f0 bd7b07d3 3c69a7f9 3d2baa92 3b1d814a bd0e083a 3b741dc5 3d85e079 3d86960e bce2592a bd8b022f 3cb29736 3d90062e 3d8945fe bd026843 bc8a088b 3d7428fc 3c919554 bc6078f4 bc9e53e4 bd1a3dfe 3d44d909 3ca12816 3d2a815b bd43ba32 bd90d544 bd5106d7 bca0afea bc84c360 3c4116c9 bacf938e 3ccf090d 3b7a49bf 3c5628e6 bca8dd84 bc8c7d4a 3d204a05 3d4785c6 3d82dfc6 bce9e977 3b13572b 3d4420b3 3db0046b b995eadb 3cc797d4 bb2d5bb0 3da322b2 3d672420 3d73189d 3cf34452 3c20ddd2 3d0b8960 bcd4ac3a bdac1b27 bb1149ae bcb30cdf bd8534d0 bddfa301 3c49e705 bbf8dfbe bd0a87d3 bddb16cd bd208365 bca71671 3c85c541 bd9bc66d bdaba120 bd76dc58 bd1da6bd bca67078 bdfdb4b7 bdce0b30 bd8bdac7 3abfe529 3ce56825 3cfe8790 3a93735b bdf8f200 be032221 bd15a74b bdefeb81 be10ff84 be07e505 bdc5f76e bd118dcf be10e27e be03df05 be121ba3 bd5096b6 bdb3014f be0a1739 bdb0f515 be09b2f7 bdfaac75 bd8f0f29 bde8c9f7 bda91665 bce2a313 3a649367 bd4605e6 bda5acbd bd8b4398 bdaa9b5c 3cb00690 3cebf117 bc20f398 bcd07a0f 3ceefc0d 3d21124d bcaadcef bd15cb1f bc50770f bb198680 3d028288 bcb73781 bcd75a56 bd31c4b9 3d5c7344 3ca6cbab bbb693bd bcb2afef bcd9a4d9 3d9e33be 3d088b7e bd6b7f28 bc8f7ceb bd43bc07 bc7b8fd0 3da39f6d bd359075 bd89f633 bc695700 3db50190 3dbb8fd6 3cac9eaa bdb888b8 bc04a2f3 3d67f747 3d44def4 bd67ff41 bd344525 3d288f66 3da2654e 3c52861e bc81316f 3d6ec776 3c2c4873 3d49eb57 bd350aee bcb20813 bda21ad9 bd951f47 bd26858a bd0e64db bb90886b bd51bae1 bca32179 bdbc2ff1 bd2839af bc9ec286 bcc37a5e bda2562f bc4e14a7 3cfcde4c bd5de73e bd4e4bc3 bdf7c277 3d6fe735 3db3f42b bc12ab6c bd8b27eb bd484a1f 3da36e4d 3d864b28 3b0b7544 be072183 be11bfa1 bdfab342 be568278 bda107b9 be5beb80 be069256 bdd5a3a2 be0e0a2f bd276cbd bd7ab8e6 bcc1c6a4 bcfd9ba8 bd690b7d be069e76 bd186143 3d0812f4 3dd06731 bd1f3ffc bdb823cd 3ce0e0d9 3e040658 3e151269 bd6de938 3b599b1b bd5e965a 3b70dd3f bd82e855 bdcd6d5a bd0cb8f5 bc970b1f 3b358c29 bdf5a254 bdce496c 3b10544e bc855d9e bc38745a bdb3fb56 bdae63a7 bcb7b64f 3c52a7d6 bc1cf760 bd1e87c8 bd5a1c2f bc366a16 bd041170 bb1993b6 3c6fb383 bc94941c bd65d370 bd88beb2 bd50b6bb bc84d31f 3d019755 bcf08277 bdcc6a02 bdcaee4b bb2cd9db 3d29a0c2 bdaaca0f bdd02ea9 bca2c63d 3d38d1aa 3d03a7d1 bda5af2d bcf88eeb 3c1a64f4 3dd08e5f 3d691ba8 bd521c69 3b4baed9 3d7e2f53 3d0fd9be 3cc90815 bd53b27c bda61888 bd1a31d4 3c09379c 3d5cb8c8 bc8ec912 bc37735b 3ca2a264 3c59da20 3cae20ef bd2f0f8e bce7f69d 3d56c2a2 3da8e841 3bc2827c bc221b6e 3d3e49ad 3cc1317b 3d917aa2 3c4f6c08 3cc32002 3c3a4a23 3da5027a 3cf48931 3d647346 bd61492c bd3b8a53 3d4e51cc bcfe5920 bce27473 bd87d2bb 3cb63500 bc58b652 bd5550d5 bd8952e3 bc6003c6 bc12f6e8 3bfd0906 bce377a8 bc974ab6 bc22d531 bcb268f5 3cee3ec5 3cec40c5 bdae4789 bcb26c76 3c33a368 3c1a4841 3c0e7b49 bda9f9a0 bcb6af44 bd691dcd bd15282b 3d1bafc5 3cd4ff35 bc913fef 3c258156 3d2a460f 3cd8652d 3c83ed4e bce18ca0 3cd47bbf 3d9352ef 3d8ee0eb bd5731d3 3c1de7c1 3c2eb890 3d18fd2c bc62f3b5 bd32aae5 3cf67d79 3cf1ec82 3c8fbb8c bd46bea4 bd530359 bcca90cc ba66f9eb bc0e0336 bd40f6d3 bc16e653 3d87ff65 3cfaa38f 3bb48954 3d0bb14d ba3ffbb3 3c3a9627 3ce25387 bcc59f18 bda0e653 bd447137 bc78bf0f bd927f8b bdcd7fde be1fec35 bd6720ce 3c8892a5 bb19f7ca be0c1536 bd8e5e9d bbf6a0f4 3cdc3c3e 3bc6a0d0 3c9ab73c bb86959e bb07937e bd3e3fc2 bd6a62a3 bd427fc2 3ae8aa24 3d7a6b50 bd14a14d bd483f2c bc878a62 3d807a44 3d63b84b 3c7319fd bc816a72 bc87644d 3d7e2c3f 3d90a6d2 3bc35406 bc86734a bd0ac95b 3cbef8ad bcc629ce 3d0f5636 bcbdd0a1 bd42f8fb 3d020bf8 3d937772 3cd36991 3c28d918 3c400a1c 3d6e40f0 3b641525 bcc69449 3bcc077f 3cce41a5 bd1242a8 bd7de93f bc53f139 bc19f4c1 bd4cf76d bd9ef1b6 bd9397c0 3b09e1d0 3c609e26 bd77dc51 bdb08b67 bca42fe7 bd8729a8 bc63df0d bbc83883 bc32d4ba bcc52695 bcf993ef bd03fcfb 3cd11268 bc0e3c2f bca537fa bc8e8faa bcafac7e bc27f73e 3bb5316a 3bd466a8 bd0a7bb4 3cdf9d0d 3d26d11f 3bdb8337 3c2d98cb 3c333200 bc8d99f8 3d2206ef ba9cb304 3b80eb40 3c9c1653 bd68fbcb 3cb26b3d 3c511c78 3c56d4a2 bc615721 bca6c15c 3cbd9c2f 3c935b33 3a8387f2 bdac15f8 bd77ea73 3cace841 3d6f419e 3caf9c44 bd8863cf bc1d6309 3d8bec32 3ce3f9b5 bd433b65 bbc9fc26 3c7c0b24 3cdd05f2 bd5bf441 bcfb5b0d 3d6af47b 3d063175 bdae3b32 3d87831f 3d2bd225 3e0e02c7 bc9846d7 be00630b 3d745851 3d5520f7 3d84f2fb bd057afb bdc224c8 3d58bfe6 3d382084 3b0094ea bda33d31 bd3aadd6 3cf4b944 3c6bf470 bbd78d93 bd3f195c 3d35a544 3d40890c bcf911e0 3d384d75 bbfcecf1 3ca5aa9a 3d8d71b9 bd31ba87 3d259a41 bc23cda0 3ce7481a 3cd01d47 bd256c62 3c7580c6 bd6ece69 3ccb89d3 3d59c7b1 bd19e007 bb0c9353 bd31aa8d 3db6ac3a 3c7945d2 3be1f952 bcf9bd6e 3cd77ad3 3d90fcd7 bc415462 bd401918 3de5df40 3d8d3510 be3702ae 3d23721b 3db018af 3df975d6 3d082147 be24f814 3bb4e61f 3c5c74b5 3db5805b 3c2899c1 bdd140fa 3c4f6c79 ba4c53a0 3d51fafe bdaf391d bcccbfcd 3d5a6983 3d6a3e2d 3ba9b74e bcb47841 3d910a85 3dd692ca bc449034 3c172e58 bd9b445f 3b890f57 3c8045b5 3b08c577 3d876eab bda6300a bc164323 3d54f9a9 3b3edec6 bacfaa7b bd5a6f61 3d0bcaa0 3d3e04bc 3d0fcd8d bc45c573 bd0a6ac4 3d989441 3d994fd2 bd943377 3be8c033 bc551f2b 3dabb5e5 bc4751e5 bd5fb339 3c54bb64 bd997d61 3d1ed431 3cd7c0a6 bd1125e4 bd106211 bdea74ad bbb3034e bc9175dc bd2c3049 bd96682c bd927761 3d251a5b 3be5b978 bafdb0b9 bc06f887 3b675042 3d51af65 3c8cf309 3bd0920a bcf4d2c1 3b97d42d 3d604f6a bda95ffd bd28d299 bd1bdc91 bd276bb4 bda2f3f3 bd864aa1 bce9698e 3c25b220 bd1b55f0 bdab9902 bcad8970 3d7d6fa9 3cd76aac bd42e975 bc31d88d bcf233e9 3d53d80f bd51a1d9 bc8c13f9 bc24b19a 3c450510 bd20af5a bbafe95d bc2c188f bc8e77f1 bc7bcbd5 3c292f6f bcc9508c bbabf59b bdabda42 3ca93c4d 3ccbd813 3d29b321 bd9c8253 bd92eaec bb70a2ae 3d40e9ab bc2ea01d bcea64ce bc4c4146 bc0b0e2b 3d084c9d bd36d6b9 bd8430d9 bd131cce 3cc2dc26 bcad7994 bcc94de9 bd09eb56 bc6a8dcc bb50730f bd566ec0 3d0b7d90 bca0fc9b bdc22718 3c3ba8b6 3d2ba6c2 3d987e93 bb8b0643 bd87e1e9 3d11eeb7 3d75730f 3c2dd340 bcdee630 bd32f095 3d156309 3ce5c71d 3c9fd5f5 bc33ff3a 3bdd3867 3d4225f1 bce46eb5 3bb18c95 bc99d9f3 3c944246 3d4ab7b5 bd9d3da0 3d76c935 3c43ada9 bdd62566 bb2d00a6 bc8a1dff 3de4c36a 3bf3bee2 bd6566a1 3d09f633 3d27d0bc 3d8dcda6 bd8dcea3 bcd343ea 3d83b7af 3cf91137 3c08c493 bdbf2e9e 3d889cf1 3d15fe5b bbe5dfd5 3c879643 3cdd4ae5 3dbf668a 3d7ea62e bdb7479e 3d87c587 bdc1a370 3d7a3c91 3d76b6e7 bd3aeb4b 3d359e4c be0352dc bbbac747 3d9c73d3 bd5506f6 bc849b57 be091763 3d8b5dc4 3d7668d7 bda43b39 bd7502eb bd4fe545 3d1c14f2 bb4bd91e bdaef677 bd8ed89a 3c54bcd9 3dc393b7 3c05cbef bce7ddae bdd47db3 bc33879c 3d585d18 3cf565eb bc26d587 bde37614 bbc0d332 3d7baf3e 3c80abe4 bd90ccbe bd986358 3d5fc99d 3dedc373 3c322a22 bd2a6bcd 3c32fb2b 3d9ea2c8 3d5b15c4 bd1255ba 3c75a44e 3d0042ec 3da0e09a 3c02abe4 bdc0deec bca524ce 3cd9b339 3db43401 3c000714 bb1b0af4 3c10263e 3c572f7e 3db9a0bc bbc5bdb1 3c7619c0 bc5e181d bcc309c1 3d72b6cf bd3e17b0 bc8c2bf0 bc50889d bb2f7974 bcfc0fb2 bd5c52c9 bd793a9f bc0fb0ca bcc3fb6c bd5f08b2 bda39a53 bcd780b6 3ccc1803 bcb30517 3b3aa796 3ccc5b56 3cff82c8 bbb86545 bdd2bcf4 bd8bb2db 3bc276b9 3c748c1b bd58ffc5 bd23d576 bc510fc3 3d893c4e 3c0a1f14 bbf22c6c bd51d811 3d670520 3d6b8d76 bda67152 bc17a39a bcf7818c 3d9c1b64 bcd525d0 bdd62d4f bd23d15e bcf15923 bd878515 bdc79ddc 3c46c675 bc5f0049 ba5ad60f 3cde5f24 bd831f2e bc683990 3d336339 3dc0988b bd5693e4 bdc1c65e 3cb6a291 3d8e4419 bca1972e bdbd6b10 bd91b2c3 bca78048 3cf5803e bd862f8c bd882714 bd30eae9 3d77e11e 3d139d83 3d4c49ce bcf23e94 bdcde1d7 3bf4c9a4 3afb18bc 3d51cb52 bd16b7b6 bd87eb3a 3d5b3e01 3d52fd18 bc894a32 bd8fa366 bae8bcb8 3cf6350f 3b98a708 3cfd601f bd215f89 3cf16726 3d1bc0b1 bc70728b 3cd057c5 bc4d3f14 3cb7c7e0 3d3d95ff bd8a40e6 3d9e815a bd8ab429 bd89611c 3cf71128 3d395be4 3d3e1225 bbfa73e2 bd638243 bbabd7d3 3b4c2365 bb4fb88b bce33200 bd05354f ba626034 3c800004 3bf8b9eb bc0adbcf 3afd7dd6 3b04eb60 3c1e123b 3d5ec770 3c58a918 3afbde8a 3d6a9658 bc835ae0 bdc59272 bcc318f7 bcdddb93 bdc8ac82 bde2c82a bd119fbb bd84af91 bdb373de bd40a1fe bc60c930 bb013124 bc05b291 bd3ce856 3c15a584 3d05b911 bce48cfe bc860430 bd828b91 bd4df1b8 bd17143b bd8fa703 bdc7fff7 bda7e3ff 3b5e5dd6 bc170f7f bd9725ab bd768d31 3c31d173 bd863c38 bdc100a0 be01564b bdf8e029 bda39de8 bd86a4f8 bd39d301 3c84b0b1 bbbd078f bdaea721 bd5376e5 3d7a5601 3d4f4aff bd600d1e bd908db7 bd42284a 3d803c26 be084e7c bdd2462c bdd57c37 bdc67bc6 bd1c7007 3d61eaec bd4a6be9 bdf715b1 37bde0d6 3d909e35 3d77a2ba bd4b2cc4 bd4effe4 3c046dd3 3d404179 3cc97b35 3c126fe0 bd6c0444 3cbb4dd1 3cfe36fc bbdc2b27 bbf67fd6 bd42ac8b bcb46454 bd217b2a 3d807bdc bcd06abd bd4cadd9 3d4594d4 bce06c4f 3dacdc88 bdb20fd3 bdd25970 3d299c83 3b0bcf63 3e1f98ed bda2c63d bd35a9e6 3d7f94ad 3d51870a 3d56108e bdc2cb35 3d149654 3d4ac7aa 3d7f4da9 bcea19d0 bd6a9ef6 3db5aae4 3da25475 bd874f2a 3d0b946c 3a8b5fa5 3da74939 3d4b125b bd8db3e4 3d0ea7b7 bd84c98d bdf6944a bb2e524a 3d92a73e 3c7ec5c9 bc9ea794 bdc42c40 bcced8da 3d2cfcf7 3cde411a bc5ba89f bdb69845 bdb4009f bd297d64 3d0f0444 bc091fbe bdd793e1 3ceede79 3d02379c 3d6e7d29 bd8d0cec bd1e1fba 3d36d926 3cbd36d1 3d9a846b 3cf82c16 3d5b00fa 3cd64601 3c2e9e69 3cf1b79e bd3dcc8e 3c3b2e8c 3d11aedc 3d12d744 bd9b34c2 bde18284 bdce2bae bdbf5177 3d2e57f2 be048746 bd5578bc 3bfc3063 bd4a9106 bd056f2f bddf8fca 3d7f474c 3dbf953a 3c12774f bd1d8d71 bd931b78 bdc794a8 3d43c73f 3b9f1b28 3ae76611 bdbd2240 bdc80bb3 3cd98fad 3c6bf8e1 bcecd79d bbd1aff0 bca7e79a 3afaceac bc839c94 bbd3e1b2 bc6fddaf 3cd3f533 bbcbd91f bd6c39b7 bbe9f8a3 3d290a06 3c0a065a bd6c7c4a bd44d46b bd80193a 3c883a86 bdd97c75 bd72986e 3d9741df 3c0494a6 3d00e9b1 bdfb2511 bd4ddb4a 3d28fb97 3d61b73f bc180b9b bda5b1f5 bd2a1335 3cff0477 3d0d2cc4 bd567086 bdb29423 bd1a61f2 3d79d10b bd229d48 bca30e4b bd99cb91 3d3d90ab 3d594c14 bc87b75e 3dc51364 bdb41138 bcc3fc27 3d355b26 ba374550 3d85a693 bdaeb43f bcbabe50 3c04b752 bcc0f044 bcd92d75 bdb72632 3b1eeb06 3c3f088e bc77d9a2 3c45f40d bd26bf14 3d3e407f 3c63040f bcf22ea1 bcc460c1 3d0d7ead 3d687edb bc1ae362 bbfa468c bd31e614 bc0ee541 3cbcd5c4 3d456fca bd1fdf6c bdfa920b bd39cc46 3d4ad2d0 3c90e33a bcf72acd bdef099d 3c596258 3d15de09 bd8d6f1a bceb84f2 bd0d1e04 3d0efe66 bd4e5027 bcdf2027 3be3d645 bb07a8f7 3ce6dc33 bc0de4ed 392f1655 bd7ce696 bc410cf9 bd551ef9 3cc784d6 3c478021 bd8f3b80 bc70f3a8 bd289a83 3cec2cf2 bb81b09b bc5a40e9 bd020b2a 3a3753bb 3d05c1e8 3c28a29d bcd715cf bd0fee82 3d2e0d01 3d91a767 bd4e9432 bd3202b7 bd045494 3d5df7dc 3d114aea bd2f2c40 3ac452f7 3d2aec6c 3ab879b8 bd5b685a bdcc9d9e bd18a3c2 bbdf3420 bc83bd57 bd5af838 bd6d7343 bcb4e0d1 bcf540c3 bc12eaea 3beb775a bd66a0a7 bd871585 3ba9ab06 baee45bf bc2bab5d bc8a5702 bd47b9b8 3d25bd60 bc43cf8c bd64d6cf bd109f7f 3c95d8ee 3d5319a2 3db0941a bdfe772c 3c12bb73 3d4f6c80 3db6f996 3c688870 bd927428 bc39e3b7 3c992785 3ddceca9 bd5c340e bd962c80 3da737b8 3d0c7d25 3a3891e3 bca4f63b bc2e81c6 3d8244ff 3c35a1d2 bd0ee69d bce2b974 3d3b8e14 3d52679b bc04ff48 3cb834fa bd5d49e4 bd5ce00b 3a45bab3 bc8aac3f 3bc749f9 bb896d93 3bded456 bcb1ffbd bd1c1d87 bd8ce8d4 bc3e204c 3c8aa53b 3d01e9a1 bd7493f7 3cc29ef8 3d963d1b bbb3f6da bd9107af bd10e227 3cf13539 3cb6b020 bdb49209 bd8b6ea2 bcc57b42 bd4070d2 bd25455d bb38f63e 3d7c13fa 3c07ca7e 3c983242 bd959656 3c3748e6 3d878d59 bc2153d6 bcfc98dc bc511da8 3cf2d693 3c1fdfaf bce75991 bca784ac 3ccf2cc9 3d0228a9 3c758f01 bca705d1 bc8eb2bb 3b807fb8 3d29336b bb3b1018 bd662ef3 3d13408d 3d2a4b1f 3c60d29d bd436516 bc8742b4 3c86740a 3bc016eb bccdc858 bb86e99a bc6cfcd5 bb1079fb bd76b0c4 bd9ae170 bd3d380c ba47d448 3b52227a bcfcf549 3cd1524e 3c90064e 3d4a5eb5 bd11632f bb4e2638 3db873ac 3d93f7c1 bc280a19 bbd912b5 3ac1eacc 3cfe2c15 bbe301fc bd4aa556 3c29de57 bcdaef7e 3cc482d7 bd1cae5c bdb8fb61 bd673429 bd838296 bd289d71 bd94b6aa bbb09349 bd4b184d bd7a94a2 bc6228c1 bd49eeb7 3c0f7805 3b734432 bce6d543 bc854c93 bc9a94fc bb04ca36 3c63c4cb 3cdde7bc 3d0dcd1c 3cb3cd2b 3c9e6ab3 3d2b1371 3d959248 bd8eaae6 39f33136 3c2be54d 3d116175 bc94ad76 bd8d6a96 bd80d9e0 bc5e8759 3d30c6d0 3a46772e 3b99863e bb1ad8bc 3bf5aee4 3d061baf 3c0da086 3d685d2d 3d1da39d bd219342 bd7f2f20 3cf0bfaa 3d573f70 3d7aa578 bad72d1b bc53ff83 3d034652 3d92245b 3ce9e852 bd39af12 3d4533a0 3d3c5ea5 3d70a952 bd2f0281 bcb8b469 3c8c6c03 3ca6849f bbee83dd bcc620a5 bc809445 3d1f1075 bbc52bfa bd045bb4 3d56fb29 3c1c5629 3c953882 3d1e088e 3d943bd4 bd2444dc bd1bf347 3d705f5d 3d1c03db bd6a8a19 bd889506 bd140a22 bcdb4751 bd19e103 bca808ce bcc3b3bd 3c49143e bd277c95 bd3a4c9d bcfa9f27 bbef0ead 3d52b5c4 bbc70c2f bda632ee 3d6346b5 3d922169 3d0eec8a 3d3fdbec 3c6c281d 3d4d13f9 3cac21db 3c2ff1d3 3cd1915c 3cb7224a bb9d7ae9 bbf64b68 bc935a91 3c8b65c6 bd88d64f bdd617e2 bd0a61c1 bc86e1db bdbf7f2a bd692df6 bd94ced2 bce42454 3a58caad bd9739c7 bd2cb631 3cc024cc bc193d7b 3cc1c53e 3d99d43e 3d98ab90 3d16855f bd137aa4 bd83ffc0 3d2aedc0 bc5abb06 bd4385bb bd86833a bd8abca6 bd0e4d27 bd9cee52 bdf529db bd80becc bd82357c bd27366a bd80dc4b bd96bff4 3cc1ddec 3d9c5e38 bd8fd074 bd9fbe55 bd03a6ed bcc7c5a8 bc7cbada 3b78fc26 3d7cbdc3 3d8895fb bcb30c9e bd9e651b 3d39e9d7 3d1654b9 bccc3bef bd545c5d bd8edf3a bd6fb1c4 bc6e53dd bd2e804f bd50fa4a bc8b6039 bd72958b bd1e5218 bcd294ce 3c6c4fca 3ccb46f7 bdadc26f bd3fb463 bc8eb38c 3d16c1b6 3d4f7948 3d202efa bbadfdcb 3d85064b 3ca9637b bcaaf141 3cf2753e 3c9530d2 3cef6493 bd9dad41 bd9d4e1a bd3a2dc2 bd076a68 bd1aa4af bda45cb6 3c35ef0b bb8ab5cc bd9a637c bdb5c32d 3d32fb0c 3d76c003 3c3b2581 bd6896bd bd359934 3d8eebc8 3ce55043 3d001013 3c5f7388 3dc92bc4 3d01179a bd32cfd2 3bd7da9b 3d0810d6 3cc42f3b bcf55aae bd5b26cf 3ccce8be bcd71a1f bd7d2c0b bd779239 3c4a16f0 bc34a987 bc872bf4 bd032d16 3ac5b417 3d4cad31 3d4feeca bda836b9 bceb3cb7 3d6f2b75 3d94e195 3cdfa4b1 3d2a8aeb 3d641614 bca08c58 bc283efe 3c8ceb4f 3d3eb429 bc8543ae bd4c9b28 bc05f896 3c4c16ec 3bb35e84 bd2defa6 bb52af79 3c8d4d5d bd2594d6 bd84b564 bda4bad0 bbd74e12 3d3053ef bcca1f1b bda1801b 3d02f878 3cc59656 3b1e427c bc7879a9 bcc52376 bcfb99e5 3da5a7d7 3da7e259 3ceb7b30 bb4cb6e1 3d944764 3d189969 3da536bd 3d3a865e 3c448c58 3db7ee3c 3dc0dbff 3db9725d bd0a78c7 3d9eecb4 3d895c4a 3db1bc5a 3c8f9629 3ce67ef6 3e413aa0 3ddca292 bd3e482c bda96477 bdc7b1b7 bd7af520 bd425a7d 3d4c5aad 3d58bcca bd45c823 3c866fcb 3c9e5782 3ce707ea 3cf8e2a6 3d131b8e 3d06a98d 3b9ee251 bcecc381 bd8eb356 3d975e4f 3cfddbd7 bd42f4ad 3b2948ea bc9d84d4 3d643de6 bcffda6d bc964bb1 bd5203a5 bacd216d bc412452 bc11c383 bd166866 bc07baa5 3d3ed7b4 3d4d712b 3a8a7156 bd2f5515 bce3da4a bc95eeaf 3d34d73e bd850224 bd37f577 bd15d0cf bd0f4d36 bdb7635b bd8c9042 3ab7a87f 3ce0ca0c bd209651 bd442500 3d62dbef 3d40e88a bd382ca9 bbfff366 bc24cfb9 bc4c8f33 3b0647a8 3b2b38fc 3c8253ea 3d9f87e2 3d816d19 bc3c7dcb bcec59b7 bd793fa3 b97252d6 3bc6e9ce bd714761 bd6d275d bc2d64e1 bccb1c28 bd2fba8f bd7394ce bc746b07 3ce98e35 bc578936 bd8a42e3 bdc63c4b bda1c07a 3d23d460 3c8025a4 3d260a95 3ca4430c bbc7d793 bd398d08 3d371687 3d818161 bd4d4512 bda34b04 bc02a5fe bbe3f646 bc9dea69 bd94f461 bc9fe526 bc092f2b 3cba0d3e bd0e52ef bd438272 bc976164 3d23f7b8 3d0cd534 bc762d94 3d27524b 3d6ea944 3c793996 3d209506 bcb9aee5 bc8dcd61 bd90eb80 bd3ed67c bd8b4a68 bd9e9407 bcfcc664 bd8f436b bcc204cc bcb33cb9 bc8960c5 bd6524be 3d0efd49 3cf86f2e bd545128 3ac28e51 3bb53a13 bcb67a74 3905df88 3d5d35cb bcbb4757 3cdde706 3d597990 bbd2458b bcab2110 3c9cb2b0 3d80402a 3bd14073 3c55ef67 3de23c9d 3d63ebca 3d451c79 bca5b6ee bd8e2a88 3d9e7f8a 3ca59384 bb69b273 bdba0b09 bd45e054 bccdbe71 3d0484dd bd8e5ad5 bd41bd48 bd3060c2 bd4ff62f bd9ba916 bdc0b814 bd71d0b1 3d28eff8 bd475fea 3c81f1ed bc6a3aaa bbc685c4 bcdf4575 3d286e8e 3c41db08 bd238594 bdad79ca be042f0d 3d978f8f bb100bf9 bd3f7b1f bd19bde4 bdb7fae8 bc3e879a bcfd87f7 bd21660a bd95e5ba bcfebf5d bdd21f0e bddc524d bd88631d bd66fb78 bd12c8a4 3b8ee910 bb8303ef bd45e13c bda0ac6c bd945c53 bbd7ccc4 bd2f6355 be017325 bdff7ffa bd5d2d1b bd6337e2 bd81459f be056061 bd9cd707 3c26342c 3bd8cc14 bdb58133 bdb68c16 3da6153d 3d5d5092 3c7280f4 3c959132 3b5aae18 3d460da5 3c473d5f 3db3ea37 3daca72d 3dd1bc07 bccda1a5 bd0d9a1e 3ae91ad3 3bbbda80 39a4bcc4 bd12accb bcb7d5f3 bcc043dd bd68bad2 bdd46a59 bd47387c 3d889007 3cdb8e0d bd825b37 bcbd5401 3db2ead7 3d3a6dc5 3d2f9114 be09e96b 3d9e717c 3e10a7bc 3d9ff767 3cff6c02 be014a25 bdcbba7c bddc7533 bddc6000 bd7f850c be444aae bdf719cd be152ebd bd3fc46b bd4e9371 bdf04b3d bda1976c 3c82233e 3d16c185 bd989a57 bcece34e bbbb588f bd9bb53e bd9dbcc1 bb9b3bc2 3c8a6cd6 bd201039 bc59c769 bd5c49db 3d2ad3dd bca8f6e0 be2cf766 be2ed3ac bb93971f 3dd28104 bddb41c4 be08c686 be02d078 bdb2284d 3cce36af bdcacefb be0005db be037b03 bdfb6965 be262270 be0083df bdeed203 be2042e6 bdd4b797 bdd8ddae bd224bba bd117a55 bdab12bb bcb7719d bd60d7e6 bc7e6976 bd13622e bc7a65c3 bc8c1113 bcccbdfe bc77d04c bce8d44e bd3efa94 bd4be444 bc872149 bcd3c0f8 3b6ab60a bcfe6e29 bdb73c87 bdd4d0ea bce7c766 bd4f2d67 bd185665 bdc41ad3 bd93cfbc 3d560508 bb37a16c bde65252 bd01f044 3d1db2ec bc906760 3c9222eb 3a788f8e bd267da5 bcc5ab24 3d377d77 bcde83f4 bd9be1d7 bcc7f7de bc3c79be bd19901c bdd228ec bdc3aad6 3c672303 bd4b5292 bd82ddc7 bda9734e 3d407d8e 3cd15d69 bc8fb105 bd99101f bd941f62 3d6b399f 3ccd232a 3d89a324 3cf2ad02 bc93b367 bd818523 bc9b2500 bc3898ba bbcacaaf bd48cd90 bdb20349 3bf912da bbee7620 bd6dcf1e bdaa5e76 3c97b3d3 3d10fc7c bd05e571 bdce4ff8 bcb2e291 3d0ee2f5 3ce66fda bd77e8f6 bd5bc318 3d3039c9 3cb10a1c 3d27af3b 3d3f3018 bd251cee bd9f1aa9 bd6c68dc 3d096044 bd401c97 bd038c46 bd84061a bd2e3e97 3cad080d bb5bcaca bd4868f3 3b74874f 3c66fcf4 bbbc4b05 bd352d2a 3cedf550 3d0cfa14 bd023ad1 bd25335d bbbd7b4f 3dd01e66 bca0357b 